<pad>	0
<s>	0
</s>	0
<unk>	0
င်	-0
ို	-1
ော	-2
▁အ	-3
ည်	-4
▁က	-5
က်	-6
ား	-7
န်	-8
▁သ	-9
စ်	-10
▁တ	-11
င်း	-12
▁ပ	-13
▁မ	-14
ဲ့	-15
▁န	-16
▁ရ	-17
သည်	-18
ခဲ့	-19
▁လ	-20
ေး	-21
တ်	-22
ျား	-23
▁ကို	-24
▁၊	-25
▁။	-26
င့်	-27
ီး	-28
ပ်	-29
▁ပြ	-30
ယ်	-31
မှ	-32
ုံ	-33
ို့	-34
ိုင်	-35
များ	-36
မ်	-37
▁ဖ	-38
▁သည်	-39
ောက်	-40
ချ	-41
ကြ	-42
▁စ	-43
ပြ	-44
▁နှ	-45
သော	-46
မှု	-47
▁တွ	-48
ရှ	-49
▁၏	-50
ခြ	-51
ခဲ့သည်	-52
ုံး	-53
▁တစ်	-54
▁ထ	-55
ော်	-56
န်း	-57
ြစ်	-58
ုပ်	-59
▁တွင်	-60
▁ဆ	-61
▁မှ	-62
တွ	-63
ိုး	-64
▁နှင့်	-65
မ်း	-66
ခု	-67
▁သူ	-68
ောင်	-69
ပါ	-70
▁ဟ	-71
ောင်း	-72
နေ	-73
ရာ	-74
ေါ	-75
ရေး	-76
ည်း	-77
▁ဒ	-78
▁ဖြစ်	-79
ိုက်	-80
ခြင်း	-81
▁ပြီး	-82
▁ရှ	-83
ရှိ	-84
ွန်	-85
▁ကြ	-86
ွဲ	-87
▁ဘ	-88
▁ကျ	-89
▁များ	-90
ိုင်း	-91
▁ရန်	-92
▁အတွ	-93
ခံ	-94
ကျ	-95
▁ဟု	-96
ချက်	-97
ဆို	-98
ုတ်	-99
▁ယ	-100
ူး	-101
▁တစ်ခု	-102
နှ	-103
▁ခ	-104
▁ဂ	-105
ေ့	-106
သူ	-107
▁ပြော	-108
လာ	-109
▁ဝ	-110
မြ	-111
ထား	-112
တို့	-113
ေါ်	-114
ဉ်	-115
▁အစ	-116
▁ရှိ	-117
ဖွ	-118
ိမ်	-119
ဆုံး	-120
▁"	-121
▁အတွက်	-122
တာ	-123
▁အသ	-124
ငံ	-125
နိုင်	-126
တော်	-127
▁မှာ	-128
▁နိုင်	-129
ဆောင်	-130
ိတ်	-131
▁“	-132
န့်	-133
လုပ်	-134
▁အမ	-135
တယ်	-136
▁သော	-137
စား	-138
ွား	-139
▁သို့	-140
ဦး	-141
▁လူ	-142
ော့	-143
▁၁	-144
ျှ	-145
ဖြစ်	-146
▁ခု	-147
▁၂	-148
ပေး	-149
▁”	-150
▁နှစ်	-151
မည်	-152
ဝင်	-153
▁မြ	-154
ဖြ	-155
ဖွဲ့	-156
▁နိုင်ငံ	-157
လ်	-158
▁အား	-159
ပြု	-160
▁ပါ	-161
ယာ	-162
ွေး	-163
သား	-164
ကြီး	-165
ျက်	-166
ောင့်	-167
ရိ	-168
▁သူတို့	-169
▁ကျွန်	-170
ရီ	-171
ွက်	-172
ကြား	-173
ပွဲ	-174
▁အဆို	-175
ွယ်	-176
▁ဖြ	-177
▁ဗ	-178
ွှ	-179
တင်	-180
ွာ	-181
တူ	-182
ိန်	-183
ကြောင်း	-184
ျိုး	-185
မ္	-186
▁သတ	-187
▁နေ	-188
ပါသည်	-189
▁လက်	-190
၀၀	-191
ကို	-192
▁ဂျ	-193
နှစ်	-194
▁ဒီ	-195
▁လုပ်	-196
စု	-197
ိမ့်	-198
သည့်	-199
▁တို့	-200
ဘာ	-201
ရား	-202
ေါင်း	-203
ကန်	-204
ွင့်	-205
▁အန	-206
္စ	-207
▁အခြ	-208
မား	-209
တီ	-210
ပိုင်း	-211
စီ	-212
လီ	-213
ဒီ	-214
▁အရ	-215
▁၄	-216
▁ချ	-217
လုံး	-218
ဆိုင်	-219
▁င	-220
▁နောက်	-221
▁အာ	-222
နေ့	-223
▁အဖွဲ့	-224
▁အဆိုပါ	-225
▁ပြည်	-226
▁ရဲ့	-227
စဉ်	-228
လက်	-229
▁ထို	-230
ပြီး	-231
ွေ	-232
ိမ်း	-233
ကာ	-234
ိုးရ	-235
▁အလ	-236
ဂျ	-237
▁သတင်း	-238
ပေါ်	-239
စေ	-240
▁အမေ	-241
ယူ	-242
▁ကျွန်တော်	-243
စာ	-244
တွင်	-245
▁အမေရိ	-246
နာ	-247
ီရ	-248
▁(	-249
ော်လ	-250
စွာ	-251
▁တရား	-252
နောက်	-253
▁ထုတ်	-254
ိန်း	-255
▁စစ်	-256
ုန်း	-257
ိမ့်မည်	-258
▁သေ	-259
▁အမေရိကန်	-260
▁လေ	-261
ချုပ်	-262
ဟုတ်	-263
စ္စ	-264
▁ဖြင့်	-265
ေအ	-266
▁အထ	-267
မာ	-268
▁ဦး	-269
ချိန်	-270
မှတ်	-271
▁)	-272
ီအ	-273
▁ခုနှစ်	-274
▁၎	-275
▁ရေ	-276
▁၎င်း	-277
▁ကု	-278
ည့်	-279
▁အဖြစ်	-280
ဒ်	-281
ခဲ့သော	-282
မှုများ	-283
လျ	-284
့်	-285
သို့	-286
ပွား	-287
နယ်	-288
▁လို့	-289
ဏ်	-290
ညီ	-291
ယား	-292
▁ဟာ	-293
▁အခ	-294
▁တိုက်	-295
ရှား	-296
ပါတယ်	-297
▁ဖြစ်သည်	-298
▁အတွင်း	-299
ိပ်	-300
လှ	-301
ယောက်	-302
▁ဥ	-303
▁ကာ	-304
▁ဝန်	-305
▁ဆက်	-306
▁ယူ	-307
ံ့	-308
▁ရာ	-309
ေသ	-310
▁ဆို	-311
▁ပြောကြား	-312
င်္	-313
ရှင်	-314
▁၌	-315
အတူ	-316
သွား	-317
ညာ	-318
အား	-319
ခိုက်	-320
▁ဖော်	-321
တိ	-322
▁ပြီးနောက်	-323
▁ရက်	-324
▁ပြန်	-325
သာ	-326
စတ	-327
လည်	-328
▁ပေါ်	-329
လန်	-330
သူများ	-331
▁အကြ	-332
▁လည်း	-333
▁၄င်း	-334
နီ	-335
ီးယား	-336
▁ပြောခဲ့သည်	-337
▁ပြု	-338
ကျင်	-339
▁အစိုးရ	-340
ငြ	-341
လို	-342
ပတ်	-343
တွေ	-344
နစ်	-345
က်စ်	-346
ပြန်	-347
စည်း	-348
ဖြင့်	-349
ရောက်	-350
လိမ့်မည်	-351
တဲ့	-352
ဘော	-353
▁ပို	-354
▁မြို့	-355
ွန်း	-356
ခဲ့ရ	-357
နက်	-358
▁နှင့်အတူ	-359
သက်	-360
▁စာ	-361
▁အမျိုး	-362
သတ်	-363
▁အတ	-364
သမား	-365
ဝါ	-366
▁နေရာ	-367
▁ဇ	-368
က္	-369
မီ	-370
ရပ်	-371
ွင်း	-372
န္	-373
▁ခရ	-374
▁အဆ	-375
▁ဒါ	-376
▁သည့်	-377
ွတ်	-378
ဒါ	-379
ဌာ	-380
▁ထဲ	-381
▁လျှ	-382
ရန်	-383
ထားသော	-384
▁ဖော်ပြ	-385
▁သုံး	-386
ပြင်	-387
မြင်	-388
▁နေ့	-389
မဟုတ်	-390
▁၃	-391
ခွင့်	-392
ပေါင်း	-393
ခဲ့ပါသည်	-394
▁သူမ	-395
ကြသည်	-396
စီး	-397
▁စီ	-398
▁အလုပ်	-399
▁ကြောင့်	-400
ရက်	-401
မှာ	-402
▁ပေး	-403
▁ဖို့	-404
တစ်	-405
လွှ	-406
ဝန်	-407
▁အခြား	-408
▁၂၀၀	-409
▁ကိုယ်	-410
လဲ	-411
ဖြတ်	-412
▁အများ	-413
▁မိ	-414
ဂါ	-415
ဆိုင်ရာ	-416
ဆေး	-417
စစ်	-418
▁သော်လ	-419
ယာဉ်	-420
▁သော်လည်း	-421
ဌာန	-422
ပြည်	-423
တော့	-424
▁သေဆုံး	-425
▁ခဲ့	-426
မ္မ	-427
▁ပါဝင်	-428
ပဒ	-429
▁နာ	-430
▁ထောက်	-431
ဆက်	-432
စွဲ	-433
▁တာ	-434
ထောင်	-435
ုံစ	-436
ေါက်	-437
▁ဆုံး	-438
▁တစ်ဦး	-439
တမ်း	-440
▁ပြုလုပ်	-441
▁အရာ	-442
တန်	-443
င့်	-444
ခံရ	-445
▁ဘာ	-446
▁အပေါ်	-447
▁ပထ	-448
ပဒေ	-449
တက်	-450
▁အက	-451
▁ပထမ	-452
လေး	-453
▁အသင်း	-454
▁ည	-455
ကား	-456
▁ဒေသ	-457
လျှ	-458
▁ရဲ	-459
▁လှ	-460
▁မှတ်	-461
ကြောင့်	-462
မ္ဘာ	-463
▁တွေ့	-464
ဘက်	-465
▁မရှိ	-466
ကြာ	-467
ခြား	-468
ိုင်အ	-469
ွမ်း	-470
▁လုပ်ဆောင်	-471
▁စတင်	-472
ဆင်	-473
▁သူ့	-474
ိုလ်	-475
ခင်	-476
မို	-477
ခါ	-478
▁တစ်ယောက်	-479
▁၂၀	-480
မျိုး	-481
ိုအ	-482
▁ခန့်	-483
န္ဒ	-484
▁အသုံး	-485
▁ကျွန်ုပ်	-486
မ္မတ	-487
▁ကမ္ဘာ	-488
မယ်	-489
ထုတ်	-490
ကွယ်	-491
တပ်	-492
▁ဝန်ကြီး	-493
ပြော	-494
▁၁၉	-495
ရင်း	-496
▁သိ	-497
▁သက်	-498
▁အင်	-499
သမ	-500
▁ပြည်နယ်	-501
▁ယောက်	-502
▁အကျ	-503
▁သို့မဟုတ်	-504
ရွက်	-505
▁ပတ်	-506
▁လမ်း	-507
▁၅	-508
▁သမ္မတ	-509
ငန်း	-510
ချက်များ	-511
▁ထိ	-512
ယူး	-513
ခဲ့တယ်	-514
နှုန်း	-515
ဲ့သို့	-516
ပိုင်	-517
▁အချိန်	-518
သိမ်း	-519
နိုင်ငံ	-520
▁ကြေ	-521
▁နဲ့	-522
▁ရရှိ	-523
ဖက်	-524
▁တိုက်ခိုက်	-525
▁ကြောင်း	-526
▁မီး	-527
ကီ	-528
န်တ	-529
▁ကြိုး	-530
ဥ်	-531
တည်း	-532
နေသော	-533
▁ပြန်လည်	-534
ဖ်	-535
ရို	-536
▁စီး	-537
▁ဆေး	-538
ပီ	-539
ဆီး	-540
ီရင်	-541
▁တိုး	-542
▁မူ	-543
ငြာ	-544
▁ပြောကြားခဲ့သည်	-545
ခြေ	-546
ဟာ	-547
လိုက်	-548
▁အားလုံး	-549
▁အကြောင်း	-550
▁ရွေး	-551
▁မျှ	-552
လမ်း	-553
▁မဲ	-554
ပုံ	-555
အရာ	-556
▁အောက်	-557
သော်	-558
အရ	-559
ငယ်	-560
တန်း	-561
▁နယူး	-562
တွင်း	-563
▁သာ	-564
▁အက်	-565
ရုံ	-566
▁အုပ်	-567
တိုင်	-568
▁နည်း	-569
▁ကျွန်တော်တို့	-570
ခ်	-571
ဘီ	-572
▁လာ	-573
▁ဥပဒေ	-574
▁ကစား	-575
ောက်အ	-576
▁-	-577
တိယ	-578
ရုံး	-579
ဂ္	-580
▁ဒု	-581
▁အီရ	-582
ဂ္ဂ	-583
▁မည်	-584
ချို့	-585
▁တောင်	-586
ဖော်	-587
▁အသုံးပြု	-588
▁တင်	-589
▁လေယာဉ်	-590
ချင်း	-591
▁တပ်	-592
က္က	-593
ရှင်း	-594
ေးလျ	-595
▁စိတ်	-596
▁ထိန်း	-597
▁အိမ်	-598
▁အနည်း	-599
ေအနေ	-600
▁ကြာ	-601
▁ပြိုင်	-602
ပြား	-603
ဘူး	-604
▁ယခု	-605
▁တွေ	-606
မန်	-607
▁ရှာ	-608
▁အသက်	-609
▁ပြင်	-610
▁၍	-611
▁ကျော်	-612
ဆာ	-613
အစည်း	-614
ပံ့	-615
▁အမြ	-616
▁ပွဲ	-617
အခါ	-618
ဏာ	-619
▁ခေါင်း	-620
▁ဤ	-621
ဓိ	-622
ါး	-623
▁မီ	-624
လည်း	-625
▁အရေး	-626
ယ်လ်	-627
▁အို	-628
▁တည်	-629
▁ပါတီ	-630
ထောင်စု	-631
အဖွဲ့	-632
လင်း	-633
ေါ်လာ	-634
ကောက်	-635
ယို	-636
မိ	-637
မံ	-638
▁ကြီး	-639
ဉ်း	-640
ပညာ	-641
ဲလ်	-642
▁အေ	-643
▁မြောက်	-644
န့်ကျင်	-645
▁အခြေအနေ	-646
တိုက်	-647
ဏီ	-648
ရေ	-649
▁အစီရင်	-650
▁အဓိ	-651
ခဲ့ရသည်	-652
ဆယ်	-653
▁ပစ်	-654
္တ	-655
▁စက်	-656
▁အစီရင်ခံ	-657
စတြ	-658
နား	-659
▁ငြ	-660
▁သဘော	-661
ခဲ့ကြသည်	-662
▁ဆိုင်	-663
ရစ်	-664
ရော	-665
▁ထက်	-666
▁လုံ	-667
သိ	-668
ပါး	-669
ဖွေ	-670
▁ထွက်	-671
▁လွှ	-672
ကွဲ	-673
▁နယ်	-674
▁ပြောင်း	-675
▁အန်	-676
▁အပြ	-677
▁သို့သော်	-678
▁အမျိုးသား	-679
ပေ	-680
▁၆	-681
ခြုံ	-682
မှန်း	-683
ဝေး	-684
▁ဘီ	-685
▁သူ၏	-686
သေး	-687
▁နောက်ဆုံး	-688
ိုအပ်	-689
▁ပျက်	-690
▁အသစ်	-691
▁လိုအပ်	-692
▁ဖြစ်ပွား	-693
ကွက်	-694
▁ရပ်	-695
ကြည်	-696
▁ကွန်	-697
▁နာရီ	-698
လပ်	-699
ခန်း	-700
ပျက်	-701
မှူး	-702
▁ဆုံးဖြတ်	-703
ထားသည်	-704
▁ပုံ	-705
▁အစီအ	-706
▁တာဝန်	-707
▁ဆက်လက်	-708
တို	-709
▁မဟုတ်	-710
ခဲ့ပါတယ်	-711
▁ပျ	-712
▁အနေ	-713
စပ်	-714
▁ကုန်	-715
▁ဓ	-716
▁သတ်	-717
▁ဆန့်ကျင်	-718
ရှိသော	-719
▁ရောက်	-720
စတြေးလျ	-721
နေသည်	-722
ုံကြည်	-723
ခတ်	-724
ုံစမ်း	-725
ထွက်	-726
နည်း	-727
▁ဝင်	-728
လူ	-729
▁အောင်	-730
▁ထင်	-731
ထပ်	-732
▁ဘယ်	-733
▁ဒုတိယ	-734
▁အလွန်	-735
▁ကာကွယ်	-736
ပဏီ	-737
▁ပင်	-738
မ္ပဏီ	-739
▁ရုပ်	-740
▁အဓိက	-741
ခွဲ	-742
▁ရော	-743
▁အစ္စ	-744
လား	-745
▁လေး	-746
▁ဒေါ်လာ	-747
တည်	-748
မဲ့	-749
▁မက်	-750
▁အခြေ	-751
▁အရာရှိ	-752
ကစား	-753
▁ကယ်	-754
▁စုံစမ်း	-755
▁တောင်း	-756
▁ထုတ်ပြန်	-757
နှင့်	-758
▁လွတ်	-759
ကယ်	-760
▁အဲ	-761
▁လျှင်	-762
▁တဲ့	-763
▁သောကြောင့်	-764
င်းပ	-765
မြောက်	-766
▁ခံ	-767
နေရာ	-768
▁လုပ်ငန်း	-769
▁ရှာဖွေ	-770
▁မှု	-771
▁ကုမ္ပဏီ	-772
သေ	-773
ထန်	-774
▁အဖွဲ့အစည်း	-775
သွယ်	-776
▁အချို့	-777
▁ဆီ	-778
▁မာ	-779
▁အဆင့်	-780
▁၇	-781
နွေး	-782
▁လေ့	-783
ကောင်း	-784
▁ခေါင်းဆောင်	-785
အမ	-786
▁ကျောင်း	-787
ူညီ	-788
လွှတ်	-789
▁ငွေ	-790
▁ဝီ	-791
▁ကြေငြာ	-792
▁ကဲ့သို့	-793
▁ဗြ	-794
▁အီ	-795
သီ	-796
စိတ်	-797
ဇာ	-798
▁ထောက်ပံ့	-799
ရင်	-800
ခဲ	-801
င်္ဂ	-802
▁ဖွ	-803
▁အနိုင်	-804
▁ဗြိ	-805
ော်လင့်	-806
▁ရွေးကောက်	-807
ပစ်	-808
▁ရည်	-809
ုပ်ရှား	-810
▁ကြား	-811
▁သွား	-812
▁ပြိုင်ပွဲ	-813
မျှ	-814
သပ်	-815
▁ခြ	-816
သုံး	-817
▁ထပ်	-818
ထောက်	-819
▁ခရီး	-820
▁သောအခါ	-821
ငွေ	-822
▁သန်း	-823
ချ်	-824
သွင်း	-825
▁ခြင်း	-826
▁တိုင်း	-827
သစ်	-828
▁ယုံကြည်	-829
▁ပိတ်	-830
▁ပြောဆို	-831
▁အဖွဲ့ဝင်	-832
ပျ	-833
လင်	-834
ုန်	-835
ပြိုင်	-836
က္ခ	-837
▁ကိုယ်စား	-838
ဂျီ	-839
ဏ်ရာ	-840
▁လုံခြုံ	-841
တွေ့	-842
လှယ်	-843
▁ကော်	-844
▁ဖြစ်လာ	-845
▁၈	-846
▁သံ	-847
▁ဌာန	-848
ပို့	-849
သမီး	-850
ရိုက်	-851
▁ဆောင်	-852
ခိုင်	-853
▁အကြီး	-854
▁ဩ	-855
▁သတိ	-856
▁ခေါ်	-857
▁အစီအစဉ်	-858
လစ်	-859
မှန်	-860
ရှိသူ	-861
ခဲ့သည့်	-862
ပြီ	-863
ထမ်း	-864
▁ပထမဆုံး	-865
▁သြ	-866
▁လုံး	-867
ွေးနွေး	-868
▁အကျိုး	-869
▁ကြိုးစား	-870
▁မကြာ	-871
ယံ	-872
မြေ	-873
▁ခွင့်	-874
▁လိမ့်မည်	-875
▁ဖမ်း	-876
ပွားရေး	-877
မည့်	-878
ိစ္စ	-879
▁ထား	-880
▁မျှော်လင့်	-881
ပင်	-882
တည်းက	-883
▁ယာ	-884
▁ဆန္ဒ	-885
▁ပေါက်	-886
ဒန်	-887
▁ပြောင်းလဲ	-888
▁လွန်	-889
▁စု	-890
▁ရှေ့	-891
▁မြို့တော်	-892
ပြောင်း	-893
လယ်	-894
▁ရွေးကောက်ပွဲ	-895
ပဲ	-896
▁ကား	-897
▁ရေး	-898
▁မေး	-899
▁ကျွန်ုပ်တို့	-900
▁ဆောင်ရွက်	-901
▁၁၀	-902
ထိုင်	-903
စစ်ဆေး	-904
▁သဘောတူ	-905
▁လျ	-906
ချက်အ	-907
▁အီရတ်	-908
▁ကောင်း	-909
ာတ်	-910
▁အမှု	-911
ဆန်	-912
တွက်	-913
စ္စည်း	-914
▁စီးပွားရေး	-915
ပန်	-916
▁အမ်	-917
▁နှင့်	-918
▁ကနေ	-919
ွပ်	-920
မြှ	-921
▁ဆိုင်ရာ	-922
တု	-923
▁အနီး	-924
▁အာဏာ	-925
▁ဆိုတာ	-926
ပေးခဲ့သည်	-927
ခိုင်နှုန်း	-928
စုံ	-929
▁စေ	-930
▁ပြင်း	-931
▁အစ္စရေး	-932
ရွယ်	-933
▁ငါး	-934
▁မှတ်တမ်း	-935
နီး	-936
▁ပိုင်	-937
▁ဝေ	-938
▁ယနေ့	-939
▁အတည်	-940
▁လက်ရှိ	-941
▁ဖြစ်နိုင်	-942
သင့်	-943
▁အရှ	-944
လိုင်း	-945
▁တောင်းဆို	-946
ဝေ	-947
ဖွယ်	-948
နီးယား	-949
ွီ	-950
အောင်	-951
▁နောက်ထပ်	-952
▁ရာခိုင်နှုန်း	-953
စက်	-954
▁အမျိုးသမီး	-955
▁ဘု	-956
အက်စ်	-957
ခဲ့ပြီး	-958
▁အကြမ်း	-959
▁ဖြစ်သော	-960
▁များစွာ	-961
ထု	-962
ထိုး	-963
န်းကျင်	-964
..	-965
သားများ	-966
ဘဲ	-967
▁ပိုမို	-968
▁ဖြစ်ခဲ့သည်	-969
▁ကတည်းက	-970
ချက်အလက်	-971
▁လှုပ်ရှား	-972
အေ	-973
ချာ	-974
န်န	-975
အရေး	-976
ရှိခဲ့သည်	-977
မေး	-978
▁ဂျာ	-979
ကိုယ်	-980
▁ရှင်း	-981
▁ကလေး	-982
▁ရောဂါ	-983
▁ကမ္ဘာ့	-984
ရှ်	-985
ဆိုင်သော	-986
▁အနိုင်ရ	-987
▁ဦးဆောင်	-988
▁ပြသ	-989
▁စီမံ	-990
▁ထိန်းသိမ်း	-991
ရိုး	-992
▁မစ္စ	-993
▁အထိ	-994
ကြေး	-995
▁တရားရုံး	-996
▁ထောက်ခံ	-997
▁ပေါက်ကွဲ	-998
▁သမ	-999
▁လေ့လာ	-1000
▁အခွင့်	-1001
▁တန	-1002
▁အနည်းဆုံး	-1003
▁အပ	-1004
▁အိုင်	-1005
▁ရှိသည်	-1006
▁၂၀ဝ	-1007
တကာ	-1008
▁မြင့်	-1009
ဒို	-1010
ရုတ်	-1011
▁အဆုံး	-1012
▁ထိခိုက်	-1013
▁လုံခြုံရေး	-1014
ဏ္	-1015
▁ခန့်မှန်း	-1016
ူအ	-1017
▁ဧ	-1018
▁စည်း	-1019
▁အစော	-1020
ရီးယား	-1021
တိန်	-1022
▁အယ်	-1023
င်္ဘော	-1024
▁အတည်ပြု	-1025
လိ	-1026
ကိုင်	-1027
မယ့်	-1028
ေါ့	-1029
ဒီယို	-1030
သမားများ	-1031
▁နိုင်ငံတကာ	-1032
ဈေး	-1033
ပ္	-1034
▁ပေ	-1035
▁ဘေး	-1036
▁၀	-1037
တင်း	-1038
▁ကန့်	-1039
▁ဝီကီ	-1040
▁သတင်းစာ	-1041
▁အစီရင်ခံစာ	-1042
▁တိုက်ခိုက်မှု	-1043
ပါအ	-1044
ှဉ်	-1045
ခဲ့ကြ	-1046
▁စစ်ဆေး	-1047
▁အဆိုအရ	-1048
▁နိုင်ငံရေး	-1049
▁မိုက်	-1050
▁ကိုယ်စားလှယ်	-1051
▁ကမ်း	-1052
▁လွှတ်	-1053
ရောပ	-1054
▁သင်	-1055
▁ခွင့်ပြု	-1056
▁တက်	-1057
ရယ်	-1058
လဒ်	-1059
▁အကြံ	-1060
ွပ်စွဲ	-1061
▁ဆွေးနွေး	-1062
ွေ့	-1063
▁အာဖ	-1064
▁ခရစ်	-1065
▁လူမျိုး	-1066
▁သူတို့၏	-1067
ုတ	-1068
ရာယ်	-1069
▁အထူး	-1070
▁ပြီးတော့	-1071
ဖန်	-1072
မားသော	-1073
▁ဥရောပ	-1074
▁အုပ်ချုပ်	-1075
▁ထို့	-1076
▁ယခင်	-1077
▁အပါအ	-1078
ရိတ်	-1079
လျှင်	-1080
▁ကောင်	-1081
တဆ	-1082
▁စဉ်	-1083
▁ခဲ့သည်	-1084
▁အုပ်စု	-1085
ကိန်း	-1086
▁ပေါ်တွင်	-1087
▁အစောပိုင်း	-1088
▁၉	-1089
ခဲ့ပါ	-1090
▁ဒဏ်ရာ	-1091
▁နီး	-1092
▁တရုတ်	-1093
▁တရားဝင်	-1094
▁ဈေး	-1095
▁မိနစ်	-1096
ဂျင်	-1097
▁ဝက်	-1098
န်းမာ	-1099
▁စွပ်စွဲ	-1100
▁အကြမ်းဖက်	-1101
နံ	-1102
▁ဘော	-1103
▁စွမ်း	-1104
▁အရှေ့	-1105
အုပ်	-1106
▁ပေါင်း	-1107
▁အခြေခံ	-1108
ရမ်	-1109
▁မစ္စတာ	-1110
▁အနောက်	-1111
▁ပြည်ထောင်စု	-1112
ဏ္ဍ	-1113
▁ဖြတ်	-1114
▁သတ်မှတ်	-1115
ဆီ	-1116
လေ	-1117
မွန်	-1118
▁ဖမ်းဆီး	-1119
▁ရည်ရွယ်	-1120
▁အပါအဝင်	-1121
▁စနစ်	-1122
▁ဗုံး	-1123
▁စောင့်	-1124
ရိယာ	-1125
▁ဗြိတိန်	-1126
▁အားကစား	-1127
ဆင်း	-1128
▁ခွဲ	-1129
လောက်	-1130
ရေးမှူး	-1131
ုံ့	-1132
▁မတ်	-1133
▁ရင်	-1134
▁ရိုက်	-1135
▁လက်နက်	-1136
▁မြေ	-1137
▁ပြစ်	-1138
ုဒ	-1139
၀၀၀	-1140
ဖို့	-1141
▁ဆယ်	-1142
▁အမှ	-1143
ဝှ	-1144
ကြည့်	-1145
▁တက္က	-1146
▁ငြင်း	-1147
▁လိုက်	-1148
▁ပြင်သစ်	-1149
ဇီ	-1150
လွန်	-1151
▁အထက်	-1152
▁လေကြောင်း	-1153
ဖြေ	-1154
▁အမည်	-1155
ဖြစ်သည်	-1156
▁မတိုင်	-1157
▁ရု	-1158
▁ပြောရေး	-1159
▁ဖော်ပြခဲ့သည်	-1160
ပ္ပ	-1161
▁စက	-1162
၀ဝ	-1163
▁စံ	-1164
ဖိုး	-1165
▁ကိစ္စ	-1166
▁မည်သည့်	-1167
နှာ	-1168
ရသည်	-1169
▁ဂိုး	-1170
ဆိုခွင့်	-1171
န်းမာရေး	-1172
▁အောင်မြင်	-1173
စဥ်	-1174
ဒဏ်	-1175
▁ရလဒ်	-1176
▁ပျက်စီး	-1177
အက်	-1178
▁ချက်	-1179
▁ဖွဲ့	-1180
▁ရေနံ	-1181
သံ	-1182
ရှုံး	-1183
▁မျက်	-1184
▁ဖြစ်စေ	-1185
ဗာ	-1186
▁ဖျက်	-1187
▁တင်ပြ	-1188
▁ပင်လယ်	-1189
▁လွန်ခဲ့သော	-1190
ဆွဲ	-1191
ိုင်အမာ	-1192
▁အနေဖြင့်	-1193
တတ်	-1194
▁အခိုင်အမာ	-1195
▁ပြောရေးဆိုခွင့်	-1196
▁ဂျွန်	-1197
ကဲ့သို့	-1198
▁ကျင်းပ	-1199
အာ	-1200
သန်း	-1201
▁ဆက်သွယ်	-1202
▁ဆုံးဖြတ်ချက်	-1203
▁၁၅	-1204
တိုင်း	-1205
▁အပြင်	-1206
▁ဘက်	-1207
▁ရောက်ရှိ	-1208
သားစု	-1209
မ်းသပ်	-1210
▁မိုင်	-1211
လုပ်ငန်း	-1212
▁လီ	-1213
▁နေထိုင်	-1214
▁ပြင်းထန်	-1215
မူ	-1216
▁ကီ	-1217
▁ပီ	-1218
▁အကြား	-1219
▁တိုးတက်	-1220
ကူး	-1221
ဝါး	-1222
▁ဆာ	-1223
▁ထံ	-1224
▁အစား	-1225
▁ရှိနေ	-1226
▁အများစု	-1227
▁တား	-1228
▁ပညာ	-1229
▁ထုတ်လုပ်	-1230
ဝါရီ	-1231
စိုက်	-1232
အပြား	-1233
▁ကူညီ	-1234
▁နှစ်ခု	-1235
မက်	-1236
▁မိသားစု	-1237
ဂို	-1238
မြို့	-1239
▁နံ	-1240
▁ကျန်	-1241
▁ကနေဒါ	-1242
▁ကျန်းမာရေး	-1243
အင်	-1244
▁စုံစမ်းစစ်ဆေး	-1245
လံ	-1246
မိုက	-1247
သိုလ်	-1248
▁ဘာသာ	-1249
▁ရာသီ	-1250
▁တွေ့ရှိ	-1251
▁ဖြစ်ပေါ်	-1252
▁ကင်	-1253
ကျော်	-1254
▁စမ်းသပ်	-1255
▁လန်	-1256
▁အနည်းငယ်	-1257
ချယ်	-1258
ဒီယာ	-1259
မရှိ	-1260
▁အီး	-1261
လွှင့်	-1262
စင်	-1263
ဗီ	-1264
အသ	-1265
ဆိပ်	-1266
မြန်း	-1267
အတွင်း	-1268
▁ပြည်သူ	-1269
▁အဆောက်အ	-1270
▁:	-1271
▁ဖိ	-1272
တ်စ်	-1273
ခွန်း	-1274
ပေါက်	-1275
▁ဒီမိုက	-1276
ဆုံ	-1277
အို	-1278
ုံစံ	-1279
▁ကော်မ	-1280
▁သင်္ဘော	-1281
ကင်း	-1282
▁မြင်	-1283
▁ရုံး	-1284
လောင်း	-1285
ဆောင်မှု	-1286
ပြည်ထောင်စု	-1287
▁ဗီ	-1288
▁ဝါ	-1289
▁စင်	-1290
ပြောဆို	-1291
▁ရုရှား	-1292
ည့်	-1293
▁ဒါပေ	-1294
▁ယာဉ်	-1295
စ္စတန်	-1296
▁သက်သေ	-1297
▁အခွင့်အရေး	-1298
ကပ်	-1299
ပမ်း	-1300
ိန့်	-1301
▁ကြေညာ	-1302
လျှောက်	-1303
▁သြစတြေးလျ	-1304
ဘ်	-1305
▁လို	-1306
▁ကြိမ်	-1307
▁အင်တာ	-1308
▁အင်္ဂ	-1309
ောက်မှု	-1310
▁လွတ်လပ်	-1311
ယန်	-1312
▁တီ	-1313
▁၁၉၉	-1314
▁စစ်တပ်	-1315
ချီ	-1316
ဝါဒ	-1317
▁ဝန်ကြီးချုပ်	-1318
▁မျိုး	-1319
▁ဩစတြေးလျ	-1320
ရီး	-1321
ပ္ပံ	-1322
▁အရွယ်	-1323
သမဂ္ဂ	-1324
နိုင်သည်	-1325
▁နောက်ပိုင်း	-1326
▁သီ	-1327
▁ဖယ်	-1328
▁အမှတ်	-1329
▁နယ်မြေ	-1330
ခံခဲ့ရသည်	-1331
ရဲ့	-1332
ွင်	-1333
ခေါ်	-1334
▁၂၀၁	-1335
▁ပို့	-1336
▁စီစဉ်	-1337
ုဂ္ဂ	-1338
ွှန်	-1339
▁ကုလ	-1340
▁ဘောလုံး	-1341
ဆောင်ရွက်	-1342
▁အကြိမ်	-1343
▁တရားစွဲ	-1344
ုဒ္	-1345
▁တန်	-1346
▁အီရန်	-1347
▁သဘောတူညီ	-1348
▁တက္ကသိုလ်	-1349
ရု	-1350
အပ်	-1351
ကျင့်	-1352
ေအတွက်	-1353
▁လက်ခံ	-1354
ကျောင်း	-1355
▁အားဖြင့်	-1356
▁သိပ္ပံ	-1357
ခဲ့ခြင်း	-1358
ဝန်းကျင်	-1359
▁တပ်ဖွဲ့	-1360
▁အများအပြား	-1361
ဝတ်	-1362
မီတာ	-1363
ေါင်	-1364
▁ခံစား	-1365
▁ထောင်	-1366
တား	-1367
▁မော်	-1368
တပ်ဖွဲ့	-1369
▁ဖွဲ့စည်း	-1370
▁အိ	-1371
မြစ်	-1372
န်တိုင်း	-1373
ခွာ	-1374
ရသော	-1375
▁ကိုး	-1376
ရှိသည်	-1377
▁ဆေးရုံ	-1378
ဆံ	-1379
တွဲ	-1380
ိတ်အ	-1381
▁ပတ်သက်	-1382
▁သောကြာ	-1383
▁ပြင်ဆင်	-1384
▁ကြိုးပမ်း	-1385
▁ရှင်းလင်း	-1386
▁တိ	-1387
▁၁၁	-1388
အဝေး	-1389
▁သယ်	-1390
ော့ချ	-1391
ုန်တိုင်း	-1392
▁ထိန်းချုပ်	-1393
▁လှုပ်ရှားမှု	-1394
ဂျာ	-1395
▁၁၂	-1396
▁သစ်	-1397
▁အငြ	-1398
▁စကား	-1399
▁အပြစ်	-1400
▁ဂျက်	-1401
ရှင်များ	-1402
▁အဆုံးသတ်	-1403
▁နိုင်ငံခြား	-1404
တေး	-1405
ဘား	-1406
တိုး	-1407
▁မန်	-1408
▁ရို	-1409
▁အဲဒီ	-1410
▁ဝေဖန်	-1411
ပေးခြင်း	-1412
▁ပြောသည်	-1413
▁အလုပ်သမား	-1414
▁တို	-1415
▁ပူး	-1416
လိမ့်	-1417
▁ပိုင်း	-1418
▁ဖြစ်ခဲ့	-1419
ကမ်း	-1420
▁ပစ္စည်း	-1421
▁ကန်	-1422
▁မနေ့	-1423
▁ဂျပန်	-1424
ပို	-1425
▁ဇီ	-1426
ချမ်း	-1427
ရောင်	-1428
▁ထိုအရာ	-1429
ှဉ်ပြိုင်	-1430
▁ရီ	-1431
▁ထဲမှ	-1432
▁ဓာတ်	-1433
မြှင့်	-1434
အားဖြင့်	-1435
▁ကြီးမားသော	-1436
သယ	-1437
▁ကာလ	-1438
ကြိမ်	-1439
▁နီးပါး	-1440
▁ပုံစံ	-1441
▁အယ်လ်	-1442
▁တူ	-1443
▁ဝင်ရောက်	-1444
ဝက်	-1445
▁ရွှ	-1446
▁ကစားပွဲ	-1447
▁အရေအတွက်	-1448
နို	-1449
ရည်	-1450
ူအညီ	-1451
များစွာ	-1452
▁ရင်ဆိုင်	-1453
တ္	-1454
ွန့်	-1455
▁ဖြေ	-1456
▁သံသယ	-1457
▁မကြာသေး	-1458
ထိ	-1459
နတ်	-1460
▁စီအ	-1461
လောင်	-1462
▁အန္တ	-1463
ခံခဲ့ရ	-1464
ိယ	-1465
▁ဂါ	-1466
▁တွေ့ဆုံ	-1467
ကြွ	-1468
ပတ်သက်	-1469
မောင်း	-1470
▁ကျွန်း	-1471
▁စာရင်း	-1472
▁ရွေးချယ်	-1473
ဿနာ	-1474
▁ကီလို	-1475
▁စကော့	-1476
▁လူများ	-1477
▁အကူအညီ	-1478
ကာသ	-1479
လိပ်	-1480
ိုးဖ	-1481
လာသော	-1482
တော်တဆ	-1483
▁အိန္ဒ	-1484
▁ကုလသမဂ္ဂ	-1485
▁သို့သော်လည်း	-1486
ဟူး	-1487
▁ယင်း	-1488
▁ဖြစ်ရပ်	-1489
ါတ်	-1490
ဥပဒေ	-1491
▁လူ့	-1492
▁အိန္ဒိယ	-1493
▁နည်းလမ်း	-1494
ရုပ်	-1495
လီမန်	-1496
▁အိတ်	-1497
ပြုလုပ်	-1498
▁သတိပေး	-1499
ခြင်းများ	-1500
▁ညီ	-1501
▁မေ	-1502
▁လိ	-1503
▁ပြဿနာ	-1504
▁အာကာသ	-1505
▁လန်ဒန်	-1506
လွှတ်တော်	-1507
အကျ	-1508
▁တယ်	-1509
▁သဘာ	-1510
▁ရောင်း	-1511
▁သုံးစွဲ	-1512
▁အန္တရာယ်	-1513
မိုး	-1514
အစား	-1515
ဆောက်	-1516
လှမ်း	-1517
▁ချန်	-1518
▁အပိုင်း	-1519
ဆဲ	-1520
လျက်	-1521
▁သား	-1522
ကြမ်း	-1523
▁ဆင်း	-1524
▁အလုပ်လုပ်	-1525
ကူ	-1526
▁ဆု	-1527
ုတေသ	-1528
ိမ်းချမ်း	-1529
▁ဆုံးရှုံး	-1530
မာဏ	-1531
အန်	-1532
ပတေး	-1533
▁နို	-1534
▁ရှေ့နေ	-1535
လာခဲ့သည်	-1536
▁အကောင်း	-1537
▁အချက်အလက်	-1538
ကလ	-1539
စရာ	-1540
ဟို	-1541
▁ထိပ်	-1542
▁ခြောက်	-1543
▁ဆန္ဒပြ	-1544
▁မီဒီယာ	-1545
နိုင်သော	-1546
▁လွှတ်တော်	-1547
▁လမ်းကြောင်း	-1548
ဗစ်	-1549
▁၁၈	-1550
ဘီစီ	-1551
▁ပါက	-1552
မြင့်	-1553
▁မုန်တိုင်း	-1554
ထဲ	-1555
ရှု	-1556
▁ဆူ	-1557
▁ဟူ	-1558
ရရှိ	-1559
▁ဒီဇ	-1560
ိမ်းခြ	-1561
▁တိုင်	-1562
▁ရဲတပ်ဖွဲ့	-1563
ယက်	-1564
▁ဘရ	-1565
ဖျက်	-1566
▁မို	-1567
▁ကြို	-1568
ျူ	-1569
ဆင့်	-1570
▁မတော်တဆ	-1571
▁အရေးပေါ်	-1572
▁ယှဉ်ပြိုင်	-1573
ကဲ	-1574
▁သင့်	-1575
▁ကယ်ဆယ်	-1576
▁အမှန်တ	-1577
▁ခြိမ်းခြ	-1578
▁ငြင်းဆို	-1579
ရှာ	-1580
သီး	-1581
▁ငါ	-1582
▁အသိ	-1583
န်တီး	-1584
▁ပစ်ခတ်	-1585
▁အစိတ်အ	-1586
▁ဝန်ထမ်း	-1587
▁အရာရှိများ	-1588
▁အစိတ်အပိုင်း	-1589
နဲ့	-1590
၀င်	-1591
▁ခြေ	-1592
▁နည်းပညာ	-1593
ဘတ်	-1594
လျင်	-1595
▁သေး	-1596
▁၁၄	-1597
▁နှုန်း	-1598
▁အငြင်း	-1599
▁ပုံမှန်	-1600
▁အထောက်အ	-1601
ဂန်	-1602
▁စပ	-1603
▁တံ	-1604
▁အတူ	-1605
ပါဘူး	-1606
▁အက်စ်	-1607
▁ဦးတည်	-1608
ရောက်မှု	-1609
▁ငွေကြေး	-1610
▁ပါလီမန်	-1611
သွားခဲ့သည်	-1612
▁ပေါက်ကွဲမှု	-1613
ဋ္	-1614
▁၁၃	-1615
ပြေး	-1616
မိတ်	-1617
သတင်း	-1618
▁ဒေသခံ	-1619
▁အော်	-1620
▁သုတေသ	-1621
ပယ်	-1622
ဘာလ	-1623
မြန်	-1624
လီယံ	-1625
▁ဥက္က	-1626
လိမ့်မယ်	-1627
▁ဖြစ်တယ်	-1628
နှင့်ဆိုင်သော	-1629
ချေ	-1630
ုဏ်	-1631
▁တစ်စ	-1632
▁တော်	-1633
▁ဖြစ်ပါတယ်	-1634
ကေ	-1635
စတာ	-1636
▁၂၅	-1637
▁စွဲ	-1638
▁ကီလိုမီတာ	-1639
▁ရှိခဲ့သည်	-1640
▁အာဏာပိုင်	-1641
အနား	-1642
▁အသံ	-1643
▁အရည်	-1644
စေခဲ့သည်	-1645
▁အငြင်းပွား	-1646
▁ပတ်ဝန်းကျင်	-1647
ဉီး	-1648
တီး	-1649
နပ်	-1650
ခန့်	-1651
အိမ်	-1652
▁မစ်	-1653
▁ကြည့်	-1654
လူမျိုး	-1655
▁ရှိသော	-1656
▁အတိုင်း	-1657
▁ဝန်ဆောင်မှု	-1658
▁ဂြ	-1659
ဆော်	-1660
▁ပို၍	-1661
▁ရင်း	-1662
▁၃၀	-1663
ချင်	-1664
▁သီး	-1665
▁ဟို	-1666
▁၎င်းတို့	-1667
ထင်	-1668
▁စနေ	-1669
▁မိုး	-1670
ပိုင်ခွင့်	-1671
မခံ	-1672
လျူ	-1673
ထားခဲ့သည်	-1674
▁သကဲ့သို့	-1675
ဝဝ	-1676
နွေ	-1677
ပျံ	-1678
ရမည်	-1679
▁ဗုဒ္	-1680
▁ပုဂ္ဂ	-1681
▁မူဝါဒ	-1682
▁ကျဆင်း	-1683
▁အမြင့်	-1684
▁သေဆုံးခဲ့သည်	-1685
နှံ	-1686
▁ပမာဏ	-1687
▁ချိုးဖ	-1688
▁ဖန်တီး	-1689
▁ကာကွယ်ရေး	-1690
ထူး	-1691
မီး	-1692
နှံ့	-1693
အမတ်	-1694
▁ကူး	-1695
▁နား	-1696
တောင်	-1697
ဖြိုး	-1698
အသင်း	-1699
▁လောင်	-1700
င်္ဂနွေ	-1701
▁အင်္ဂလန်	-1702
▁မကြာသေးမီ	-1703
အစ	-1704
အမ်	-1705
အားပေး	-1706
▁သေနတ်	-1707
▁အမိန့်	-1708
▁လက်မှတ်	-1709
▁ဖြစ်ပါသည်	-1710
▁ဝယ်	-1711
▁အပူ	-1712
င်္ဂါ	-1713
ဆိုင်း	-1714
▁သေချာ	-1715
▁ကောင်စီ	-1716
ဆရာ	-1717
မတ်	-1718
ကုန်	-1719
▁စား	-1720
စွမ်း	-1721
▁ကျူး	-1722
▁ညွှန်	-1723
▁အစည်း	-1724
ပစ္စည်း	-1725
▁ပွဲစဉ်	-1726
လုံ	-1727
▁ဂျူ	-1728
▁ဆင်	-1729
နှိပ်	-1730
▁ဖွင့်	-1731
▁တရားစွဲဆို	-1732
မျ	-1733
ဏ္ဍာ	-1734
ယာဥ်	-1735
ဝှက်	-1736
▁အခွန်	-1737
▁တစ်ရပ်	-1738
ထားခြင်း	-1739
▁တနင်္ဂနွေ	-1740
▁ပူးပေါင်း	-1741
တလန်	-1742
▁ချီ	-1743
▁အလား	-1744
▁ထပ်မံ	-1745
▁ဗုဒ္ဓ	-1746
အချက်အလက်	-1747
ပြင်း	-1748
ခဲ့တဲ့	-1749
စတိုင်း	-1750
▁နှစ်ဦး	-1751
ပြောကြား	-1752
▁ဖယ်ရှား	-1753
▁ဖြစ်သည့်	-1754
▁ဖြေရှင်း	-1755
ပိတ်	-1756
ပိုး	-1757
▁ဆရာ	-1758
တောက်	-1759
▁မနက်	-1760
ော်ငြာ	-1761
▁ဟောင်း	-1762
▁အင်တာနက်	-1763
အီး	-1764
▁၁၆	-1765
အပျက်	-1766
လုပ်ဆောင်	-1767
ကြပ်	-1768
▁လစ်	-1769
▁အေအ	-1770
လာသည်	-1771
▁ဒုံး	-1772
▁မင်း	-1773
ဘားမား	-1774
▁စိုးရ	-1775
ကလီးယား	-1776
▁ရှိခဲ့	-1777
▁စွမ်းအင်	-1778
▁ဒီမိုကရက်	-1779
▁ညှ	-1780
▁၅၀	-1781
လန်း	-1782
▁ဂျီ	-1783
▁ဆန်	-1784
▁ကြာသ	-1785
▁ထည့်	-1786
▁အွန်	-1787
▁အင်္ဂါ	-1788
ပြခဲ့သည်	-1789
▁အမှန်တကယ်	-1790
▁နိုင်ငံများ	-1791
န့်	-1792
▁ဖီ	-1793
▁ခင်	-1794
▁ဘတ်	-1795
ကောင်	-1796
ကွင်း	-1797
▁လူသိ	-1798
▁ထဲတွင်	-1799
▁စိုးရိမ်	-1800
▁ထုတ်ဖော်	-1801
▁စကော့တလန်	-1802
▁ငြိမ်းချမ်း	-1803
ရဲ	-1804
တ္တ	-1805
တရား	-1806
▁ဆီး	-1807
လိုင်	-1808
▁ကင်း	-1809
▁တူညီ	-1810
▁မှန်	-1811
▁ပျောက်	-1812
▁အိုင်အ	-1813
▁ကြာသပတေး	-1814
▁--	-1815
လို့	-1816
▁ဂုဏ်	-1817
▁တတိယ	-1818
▁တော့	-1819
▁ပန်း	-1820
▁ဝမ်း	-1821
▁ကွင်း	-1822
▁တနင်္	-1823
▁ကျောက်	-1824
▁သုတေသန	-1825
▁တိုင်းပြည်	-1826
▁သတင်းထောက်	-1827
ရိက	-1828
သန်	-1829
က်ခဲ	-1830
▁ဗွီ	-1831
▁ပါလက်	-1832
▁ကန့်သတ်	-1833
▁တနင်္လာ	-1834
▁တားမြစ်	-1835
▁မျက်နှာ	-1836
▁ပါကစ္စတန်	-1837
▁မတိုင်ခင်	-1838
ဘယ်	-1839
ူတာ	-1840
▁ရစ်	-1841
▁ဗိုလ်	-1842
▁ကုန်ကျ	-1843
▁ကန့်ကွက်	-1844
▁သေဆုံးမှု	-1845
▁ထုတ်လွှင့်	-1846
ညွှ	-1847
ရွှ	-1848
ပန်း	-1849
အမှတ်	-1850
▁စဉ်း	-1851
▁ဂျော်	-1852
▁နံနက်	-1853
▁ပြည့်	-1854
▁လျှပ်	-1855
▁ခရိုင်	-1856
▁မောင်း	-1857
▁တည်ဆောက်	-1858
▁ကိုယ်ပိုင်	-1859
▁ပိုင်ဆိုင်	-1860
ကွ	-1861
ယမ်	-1862
ယွင်း	-1863
▁အသေး	-1864
သူကြီး	-1865
▁ဖောက်	-1866
▁စဉ်းစား	-1867
▁အဆိုပြု	-1868
▁မီးလောင်	-1869
▁ထို့နောက်	-1870
▁အစည်းအဝေး	-1871
ပူ	-1872
ထွေ	-1873
ဗွီ	-1874
လေ့	-1875
ဆန္ဒ	-1876
▁လိင်	-1877
▁လူထု	-1878
▁သတ္တ	-1879
▁ချိန်	-1880
▁အချက်	-1881
သည်များ	-1882
▁ရက်နေ့	-1883
▁ထွက်ခွာ	-1884
▁စောင့်ကြည့်	-1885
ဂီ	-1886
ဗေ	-1887
တိသ	-1888
ငွေ့	-1889
▁ပယ်	-1890
ဆိုက်	-1891
အပြင်	-1892
▁ဇန်န	-1893
▁ကော်မတီ	-1894
▁ထင်မြင်	-1895
▁ဗုဒ္ဓဟူး	-1896
▁ပါလက်စတိုင်း	-1897
ယာန်	-1898
▁ဖက်	-1899
▁ဓါတ်	-1900
▁စွန့်	-1901
ံ့ဖြိုး	-1902
လိုက်သည်	-1903
▁ကြေငြာချက်	-1904
▁နှင့်ပတ်သက်	-1905
မဲ	-1906
န္တ	-1907
▁တု	-1908
▁ပဲ	-1909
▁ဘဲ	-1910
ခင်း	-1911
▁ပျံ	-1912
▁ရယူ	-1913
▁အဲ့	-1914
ဇီလန်	-1915
ိရိယာ	-1916
▁ရထား	-1917
▁အမြဲ	-1918
လာခြင်း	-1919
▁ထုတ်ဝေ	-1920
▁ရေးသား	-1921
ွမ်းကျင်	-1922
▁သောကြာနေ့	-1923
▁တရားသူကြီး	-1924
▁ပြောဆိုခဲ့သည်	-1925
▁အိပ်	-1926
ဖြစ်သော	-1927
▁ဗြိတိသ	-1928
▁အကျဉ်း	-1929
▁အကောင်းဆုံး	-1930
▁..	-1931
▁လဲ	-1932
▁မသိ	-1933
▁မူလ	-1934
ိုက်အ	-1935
ိုင်အောင်	-1936
▁မေးခွန်း	-1937
▁နိုင်ငံသား	-1938
▁ဒေး	-1939
ို့ဝှက်	-1940
ုံ့ပြန်	-1941
▁ခရစ်ယာန်	-1942
▁အိုဘားမား	-1943
▁ကောင်းမွန်	-1944
▁အဖြစ်အပျက်	-1945
ဂတ်	-1946
ဘေး	-1947
လော	-1948
ော့စ်	-1949
▁ကယ်လီ	-1950
▁ထိုင်	-1951
▁အပြည်	-1952
▁ကြိုတင်	-1953
▁ပြုပြင်	-1954
တော်ချိန်	-1955
▁ကြော်ငြာ	-1956
▁ဆိုတာကို	-1957
ခဲ့ကြောင်း	-1958
မင်	-1959
▁ဆွဲ	-1960
▁၂၀၀၇	-1961
နှိုင်း	-1962
▁နိုဝင်	-1963
စုပေါင်း	-1964
ဖြစ်ပွား	-1965
▁အကြံပြု	-1966
▁ဇန်နဝါရီ	-1967
▁အရေးကြီး	-1968
▁စီမံကိန်း	-1969
▁အပြည်ပြည်	-1970
မစ်	-1971
▁ပူ	-1972
▁၁၇	-1973
တန့်	-1974
ဝမ်း	-1975
▁ကုသ	-1976
▁ယူဆ	-1977
စရိတ်	-1978
▁ချုပ်	-1979
▁ဖြန့်	-1980
ထားသည့်	-1981
▁စစ်ပွဲ	-1982
▁နယူးဇီလန်	-1983
▁ဖွံ့ဖြိုး	-1984
နှီး	-1985
▁၁၉၈	-1986
ကျသော	-1987
▁အထွေ	-1988
▁၂၀၀၆	-1989
▁တရားမ	-1990
▁ဘုရား	-1991
▁ရှုံး	-1992
▁စုစုပေါင်း	-1993
▁ပြောင်းလဲမှု	-1994
ဝဲ	-1995
ုဒ်	-1996
မျက်	-1997
ထိန်း	-1998
▁မည့်	-1999
▁အလေး	-2000
စားမှု	-2001
▁တခြား	-2002
▁ဆီသို့	-2003
▁မြင့်တက်	-2004
▁ကယ်ဆယ်ရေး	-2005
ပေါင်းများစွာ	-2006
စနစ်	-2007
ဆယ့်	-2008
▁ဒါဟာ	-2009
▁သဘာဝ	-2010
▁လောက်	-2011
▁လျော့	-2012
▁ဂြိုလ်	-2013
▁ဖျက်ဆီး	-2014
▁အထွေထွေ	-2015
▁မတိုင်မီ	-2016
▁ပြင်းထန်သော	-2017
▁အကြောင်းအရာ	-2018
▁ကြေငြာခဲ့သည်	-2019
ကု	-2020
ဇ်	-2021
ဥတု	-2022
နေကြ	-2023
ရှည်	-2024
▁စီရင်	-2025
▁ဇီလန်	-2026
▁အခန်း	-2027
ချခဲ့သည်	-2028
▁ပျံသန်း	-2029
▁မေးမြန်း	-2030
▁ရုပ်ရှင်	-2031
▁တိုးမြှင့်	-2032
ဗျ	-2033
ဒေသ	-2034
ဗေဒ	-2035
▁ဖေ	-2036
ဆိုး	-2037
▁မြှ	-2038
▁မဆို	-2039
▁မွေး	-2040
ဂျင်စီ	-2041
ပေးခဲ့	-2042
▁စခန်း	-2043
▁အပြီး	-2044
▁စက်တင်	-2045
▁ဗြိတိသျှ	-2046
▁လျှပ်စစ်	-2047
▁အဆောက်အဦး	-2048
စ္	-2049
ဗင်	-2050
မြူ	-2051
▁၂၄	-2052
ကြုံ	-2053
သွေး	-2054
▁အနာ	-2055
▁အယူ	-2056
▁တည်း	-2057
▁ဗဟို	-2058
ိတ်ဆက်	-2059
▁မည်သူ	-2060
▁ပေမယ့်	-2061
▁သမိုင်း	-2062
▁လွတ်မြောက်	-2063
▁ဖြစ်ကြောင်း	-2064
▁သတင်းအချက်အလက်	-2065
ဖာ	-2066
က်အ	-2067
ဟန်	-2068
ပါတီ	-2069
လာခံ	-2070
▁ကွဲ	-2071
▁ဘဏ်	-2072
ော့ဖ်	-2073
▁ပြို	-2074
▁အလယ်	-2075
ညွှန်း	-2076
အချိန်	-2077
ိုးရွား	-2078
▁အများဆုံး	-2079
ှက်	-2080
ဆို့	-2081
တွန်	-2082
မန်း	-2083
ေ့စ်	-2084
▁ပက်	-2085
စေသည်	-2086
ရောဂါ	-2087
သဖြင့်	-2088
▁ကောက်	-2089
▁နာမည်	-2090
▁မဖြစ်	-2091
▁ရွှေ့	-2092
▁ပြောခဲ့	-2093
▁မှတ်ချက်	-2094
နိုင်ခဲ့သည်	-2095
▁အထက်လွှတ်တော်	-2096
▁%	-2097
ဟတ်	-2098
ဖမ်း	-2099
ဝိုင်း	-2100
▁ဘဏ္ဍာ	-2101
န့်ပြန်	-2102
▁ဆောင်း	-2103
▁အာဖရိက	-2104
▁ရာသီဥတု	-2105
▁မဟာ	-2106
▁အဝေး	-2107
▁လက်ခံရ	-2108
▁ဈေးကွက်	-2109
▁ရပ်တန့်	-2110
▁ဒါပေမယ့်	-2111
▁လျှော့ချ	-2112
▁အေဂျင်စီ	-2113
▁ကျွမ်းကျင်	-2114
ဂ်	-2115
စည်	-2116
စ္ဆာ	-2117
▁ကတိ	-2118
▁ဂျာမ	-2119
▁အရပ်	-2120
ိုင်းယ	-2121
▁အက်ဖ်	-2122
▁ဒဏ်ရာရ	-2123
မေးမြန်း	-2124
▁တုံ့ပြန်	-2125
▁ဗွီဒီယို	-2126
▁အောက်တို	-2127
▁ကိုယ်တိုင်	-2128
▁များစွာသော	-2129
▁လေကြောင်းလိုင်း	-2130
ပီယံ	-2131
တွန်း	-2132
▁ဇာတ်	-2133
စ္ဆာန်	-2134
▁ဒေါက်	-2135
▁တစ်စီး	-2136
ောအတွင်း	-2137
▁များပြား	-2138
▁ဖာ	-2139
ကြော	-2140
ခရို	-2141
သည့်	-2142
▁သိသာ	-2143
ခေါင်း	-2144
ဆောင်း	-2145
▁စင်တာ	-2146
▁ဧရိယာ	-2147
▁ဒေးဗစ်	-2148
▁ထည့်သွင်း	-2149
▁မြောက်ပိုင်း	-2150
ဘန်	-2151
▁ဆဲ	-2152
ကွန်	-2153
▁ဝတ်	-2154
▁အာရ	-2155
ပြန့်	-2156
ပုံငွေ	-2157
▁ဂျော့	-2158
▁လူမှု	-2159
ိုက်အခံ	-2160
▁ထဲသို့	-2161
▁လေဆိပ်	-2162
ထားပါသည်	-2163
▁ပြစ်မှု	-2164
▁ယူအက်စ်	-2165
▁ကစားသမား	-2166
▁ချက်ချင်း	-2167
▁အတိုက်အခံ	-2168
ကင်	-2169
ထက်	-2170
အကဲ	-2171
ေတ်	-2172
ျော်	-2173
စလုံး	-2174
▁မီတာ	-2175
ခုနှစ်	-2176
မြင်သံ	-2177
နေခြင်း	-2178
ုံ့ဆော်	-2179
▁သာလျှင်	-2180
ဖိုးနီးယား	-2181
မြင်သံကြား	-2182
▁ကဲ့သို့သော	-2183
▁ကျောင်းသား	-2184
▁ချိုးဖောက်	-2185
▁တိုက်ရိုက်	-2186
ပီး	-2187
အလာ	-2188
ျေး	-2189
မင်း	-2190
ရာသီ	-2191
ဖုန်း	-2192
▁ရှေး	-2193
▁အပတ်	-2194
စတေးလျ	-2195
▁ငလျင်	-2196
▁သိမ်း	-2197
▁ဆိုသည်	-2198
▁ဘယ်လို	-2199
▁ပျောက်ဆုံး	-2200
ဗ်	-2201
ကတ်	-2202
▁ဂီ	-2203
ကိစ္စ	-2204
နိုက်	-2205
▁လျက်	-2206
▁အနက်	-2207
▁ကိုင်	-2208
▁ခက်ခဲ	-2209
မ်းမိုး	-2210
မျက်နှာ	-2211
▁တစ်စုံ	-2212
▁အင်အား	-2213
▁တစ်စောင်	-2214
▁မိုက်ခရို	-2215
▁`	-2216
▁နီ	-2217
ဂုတ်	-2218
ပြည့်	-2219
▁မဲပေး	-2220
▁ဆက်စပ်	-2221
▁အပြည့်	-2222
▁ဘေးကင်း	-2223
▁ချန်ပီယံ	-2224
တိုက်ခိုက်	-2225
▁ရရှိခဲ့သည်	-2226
▁အုပ်ချုပ်ရေး	-2227
▁ဇူ	-2228
ဇင်း	-2229
စေသော	-2230
▁၂၀၀၅	-2231
▁ဘုရှ်	-2232
▁စည်းမျ	-2233
▁ညီလာခံ	-2234
▁လည်းပဲ	-2235
▁ဖော်ထုတ်	-2236
▁မိုက်ကယ်	-2237
▁သယ်ဆောင်	-2238
▁အကျိုးသက်	-2239
▁အထူးသဖြင့်	-2240
▁အတွင်းရေးမှူး	-2241
ကြေ	-2242
ထည်	-2243
ဒက်	-2244
အခြေ	-2245
▁တတ်	-2246
▁ထူး	-2247
လာခဲ့	-2248
▁ကျေး	-2249
▁ပြေး	-2250
▁ဒုက္ခ	-2251
▁မိန်း	-2252
▁ရာထူး	-2253
ရိုက်တာ	-2254
▁စစ်သား	-2255
▁ဘီဘီစီ	-2256
▁မီးသတ်	-2257
▁တန်ဖိုး	-2258
▁တရားမဝင်	-2259
▁အခြားသော	-2260
▁အစားထိုး	-2261
▁ညွှန်ကြား	-2262
▁တုန့်ပြန်	-2263
▁လျှို့ဝှက်	-2264
▁ပြောခဲ့ပါသည်	-2265
ရံ	-2266
မ့်	-2267
ဂျစ်	-2268
င်ဘာ	-2269
အန္တ	-2270
အရွယ်	-2271
▁ကျယ်	-2272
▁သူမ၏	-2273
▁၂၀၀၈	-2274
▁တွန်း	-2275
▁နေစဉ်	-2276
▁မနေ့က	-2277
မ်းအနား	-2278
▁စက်ရုံ	-2279
▁လာမည့်	-2280
▁ရင်းနှီး	-2281
▁လေ့လာမှု	-2282
▁အကြီးအကဲ	-2283
▁၄င်းတို့	-2284
▁တစ်လျှောက်	-2285
ပိုင်းဆိုင်ရာ	-2286
▁ပြုလုပ်ခဲ့သည်	-2287
▁ရုပ်မြင်သံကြား	-2288
ပက်	-2289
စကား	-2290
ရထား	-2291
▁ဉီး	-2292
ပျိုး	-2293
▁အမြင်	-2294
▁အရင်း	-2295
▁ဒါပေမဲ့	-2296
ပြိုင်ပွဲ	-2297
▁သဘောတူညီချက်	-2298
▁ငြိမ်းချမ်းရေး	-2299
ဂျက်	-2300
ဗလျူ	-2301
ရွန်	-2302
▁ဘား	-2303
▁စျေး	-2304
▁ဇွန်	-2305
▁ရိုး	-2306
▁ရေခဲ	-2307
▁အပြု	-2308
▁၂၀၀၄	-2309
စောင့်	-2310
▁အာမခံ	-2311
▁ဘီလီယံ	-2312
▁လိုင်း	-2313
▁တည်ထောင်	-2314
▁ပါဝင်သည်	-2315
▁ဝန်းကျင်	-2316
▁သိပ္ပံပညာ	-2317
▁သေဆုံးခဲ့	-2318
▁ပြီးခဲ့သော	-2319
ခုံ	-2320
▁``	-2321
▁ဂူ	-2322
▁၂၁	-2323
▁နစ်	-2324
▁ယို	-2325
▁ပြပွဲ	-2326
▁ကိုးကား	-2327
▁ဒေါက်တာ	-2328
▁အကြံပေး	-2329
▁ဂျော်ဂျီ	-2330
▁တက်ရောက်	-2331
▁ပါဝင်သော	-2332
▁ဖြစ်ပြီး	-2333
▁ပုဂ္ဂိုလ်	-2334
▁တိုင်အောင်	-2335
မြတ်	-2336
▁လော	-2337
▁လူနာ	-2338
ဟောင်း	-2339
▁ဆောက်	-2340
▁ချမှတ်	-2341
▁တားဆီး	-2342
▁သီးခြား	-2343
▁လေ့ကျင့်	-2344
နေရ	-2345
ဘီအ	-2346
လွဲ	-2347
နှင်	-2348
စီရင်	-2349
ဌာန်း	-2350
▁ဖလား	-2351
▁လုံးဝ	-2352
တွေ့ရှိ	-2353
နီးရှား	-2354
များသော	-2355
▁ပိတ်ဆို့	-2356
▁ခြိမ်းခြောက်	-2357
▁ဒီမိုကရက်တစ်	-2358
▁ဖြစ်ပွားခဲ့သည်	-2359
နိ	-2360
တကွ	-2361
ဒင်	-2362
စတန်	-2363
▁ဟန်	-2364
▁ရှစ်	-2365
▁အတော်	-2366
အန္တရာယ်	-2367
▁ပြစ်ဒဏ်	-2368
▁ဖွဲ့စည်းပုံ	-2369
▁အဖွဲ့ဝင်များ	-2370
▁နိုင်ငံခြားရေး	-2371
တလီ	-2372
ယ်ယာ	-2373
ရမ်း	-2374
ဦးရေ	-2375
က္ခဏာ	-2376
▁ထံမှ	-2377
▁ရော့	-2378
ခံရသည်	-2379
▁ကွန်ပျ	-2380
▁ထင်ရှား	-2381
▁ပြည်သူ့	-2382
▁အခြေစိုက်	-2383
▁မှတ်တမ်းတင်	-2384
▁၂၂	-2385
လွတ်	-2386
▁...	-2387
▁ဒို	-2388
▁နက်	-2389
ဆိုဒ်	-2390
နိမ့်	-2391
▁ရုတ်	-2392
ဒီးယား	-2393
ရာတွင်	-2394
▁စပိန်	-2395
▁ထဲမှာ	-2396
▁ကိရိယာ	-2397
▁စွဲချက်	-2398
▁ဘာသာရေး	-2399
▁ရောင်းချ	-2400
▁နှစ်ယောက်	-2401
▁ပြည်တွင်း	-2402
▁ကယ်လီဖိုးနီးယား	-2403
ရူး	-2404
အေအ	-2405
ေ့အ	-2406
▁၂၇	-2407
လော့	-2408
▁စော	-2409
▁ခိုင်	-2410
▁မိန့်	-2411
▁သွင်း	-2412
▁အမြန်	-2413
ခန့်ခွဲ	-2414
သတ်မှတ်	-2415
ရိုးတန်း	-2416
ိနှိုင်း	-2417
▁ထွက်ပေါ်	-2418
▁ကော်မရှင်	-2419
▁ဈေးနှုန်း	-2420
▁တောင်ပိုင်း	-2421
▁လုပ်ငန်းစဉ်	-2422
လု	-2423
▁ဒဏ်	-2424
▁နွေ	-2425
ကျမှု	-2426
နေခဲ့	-2427
အိုင်	-2428
ထားခဲ့	-2429
▁တွင်း	-2430
▁အီတလီ	-2431
▁ဥက္ကဌ	-2432
ျော်ဖြေ	-2433
▁စနေနေ့	-2434
▁ဆေးဝါး	-2435
▁တည်ရှိ	-2436
▁အင်ဒို	-2437
နေခဲ့သည်	-2438
▁ခရီးသည်	-2439
▁လိုက်နာ	-2440
▁တာဝန်ရှိ	-2441
▁အသေးစိတ်	-2442
▁တစ်စုံတစ်	-2443
▁အကြီးဆုံး	-2444
▁အမြင့်ဆုံး	-2445
▁ထောက်ပံ့ပေး	-2446
▁ရည်ရွယ်ချက်	-2447
ဗေး	-2448
အုံ	-2449
ကလေး	-2450
ကျူး	-2451
ကွေး	-2452
ရန့်	-2453
ရေစီ	-2454
▁ကော	-2455
▁နျူ	-2456
▁ပန်	-2457
▁ရာဇ	-2458
▁၁၀၀	-2459
▁လွှဲ	-2460
▁ရိုင်	-2461
▁အနာဂတ်	-2462
▁ပေးပို့	-2463
▁စီမံခန့်ခွဲ	-2464
ကြံ	-2465
နင်း	-2466
▁တကယ်	-2467
▁အကြာ	-2468
▁ကြောက်	-2469
▁ပညာရေး	-2470
▁စာချုပ်	-2471
▁တူညီသော	-2472
ကောင်းသော	-2473
▁အချို့သော	-2474
▁ထုတ်ပြန်ချက်	-2475
ဘု	-2476
မက	-2477
လန့်	-2478
▁ပီတာ	-2479
ခံရသော	-2480
▁ဖုန်း	-2481
▁အဲ့ဒီ	-2482
သွားသည်	-2483
ဖော်ဝါရီ	-2484
▁ယူနိုက်	-2485
▁နေရာများ	-2486
▁ဘဏ္ဍာရေး	-2487
▁ကိုရီးယား	-2488
▁ကျွန်တော့်	-2489
▁ဗုဒ္ဓဟူးနေ့	-2490
နန်	-2491
ွမ်	-2492
▁ဗာ	-2493
တီစီ	-2494
▁ပေါ	-2495
▁ဘန်	-2496
▁လည်	-2497
▁ဟော	-2498
▁အလှ	-2499
▁ပြတ်	-2500
▁မတ်လ	-2501
▁အကယ်	-2502
▁ဧပြီ	-2503
ပြချက်	-2504
ပြည်သူ	-2505
ရှောက်	-2506
▁ဝက်ဘ်	-2507
များကို	-2508
▁လူဦးရေ	-2509
▁ဟိုတယ်	-2510
▁အာရုံစ	-2511
▁ဇူလိုင်	-2512
▁ပစ်မှတ်	-2513
▁ပေါ်မှာ	-2514
▁ပြန်ပေး	-2515
▁သုံးသပ်	-2516
▁ကုန်သွယ်	-2517
▁စည်းမျဉ်း	-2518
▁အခမ်းအနား	-2519
▁တနင်္လာနေ့	-2520
▁ဖေဖော်ဝါရီ	-2521
▁မတော်တဆမှု	-2522
▁ကြာသပတေးနေ့	-2523
▁စံတော်ချိန်	-2524
▁ကမ်းရိုးတန်း	-2525
▁အင်ဒိုနီးရှား	-2526
ရ်	-2527
ဗန်	-2528
မော	-2529
▁၂၃	-2530
မပြု	-2531
မွေး	-2532
လျား	-2533
ကြိုး	-2534
ဒဏ်ရာ	-2535
လံပစ်	-2536
▁ရဟတ်	-2537
စာရင်း	-2538
▁စိုက်	-2539
▁ဆက်ဆံ	-2540
▁နှုတ်	-2541
▁လူသတ်	-2542
ထုတ်ပြန်	-2543
▁စံချိန်	-2544
▁အသက်ရှင်	-2545
▁စတင်ခဲ့သည်	-2546
▁ဆက်သွယ်ရေး	-2547
▁အတောအတွင်း	-2548
▁လုပ်ဆောင်ချက်	-2549
▁အမျိုးသမီးများ	-2550
ဟု	-2551
သင်	-2552
ဆွယ်	-2553
မဆို	-2554
▁ညနေ	-2555
▁ဟက်	-2556
လာမှု	-2557
အက်ဖ်	-2558
▁သွေး	-2559
စာတမ်း	-2560
▁ကတော့	-2561
ထင်ရှား	-2562
▁ကျန်ရှိ	-2563
▁ခရီးသွား	-2564
▁ဒါရိုက်တာ	-2565
▁တိုက်တွန်း	-2566
▁ထုတ်ပြန်ခဲ့သည်	-2567
ဝယ်	-2568
စမ်း	-2569
ရပ်စ်	-2570
အချင်း	-2571
▁လူတွေ	-2572
▁မဟုတ်ပါ	-2573
▁လောင်စာ	-2574
▁သတင်းဌာန	-2575
▁ဝန်ကြီးဌာန	-2576
▁အကြမ်းဖက်မှု	-2577
ဖူး	-2578
ဝမ်	-2579
ခိုး	-2580
ဖွား	-2581
ဘီယာ	-2582
▁ဘို	-2583
▁ဝေး	-2584
▁အစ်	-2585
ရှိန်	-2586
သောက်	-2587
▁အရင်	-2588
တောင်း	-2589
▁ဒီနေ့	-2590
▁သတ္တု	-2591
▁၄င်း၏	-2592
ဝင်များ	-2593
▁စာအုပ်	-2594
▁နားလည်	-2595
နိုင်ခဲ့	-2596
များများ	-2597
▁သက်တမ်း	-2598
ပြောင်းလဲ	-2599
▁ပြီးဆုံး	-2600
▁ရန်ပုံငွေ	-2601
▁အင်္ဂါနေ့	-2602
▁ပြောခဲ့တယ်	-2603
စံ	-2604
ပ်အ	-2605
▁၄၀	-2606
ဂိုး	-2607
▁အနု	-2608
အတွက်	-2609
အမြစ်	-2610
▁ထိုး	-2611
▁နှင်း	-2612
▁ခရီးစဉ်	-2613
▁မှန်ကန်	-2614
▁ဖျော်ဖြေ	-2615
▁ပို့ဆောင်	-2616
▁မိုက်ခရိုဆ	-2617
▁ကုန်ကျစရိတ်	-2618
▁အောင်မြင်မှု	-2619
ဇီး	-2620
ဒါး	-2621
ာဏ်	-2622
ကျည်	-2623
ထွင်	-2624
▁ပီအ	-2625
▁လှေ	-2626
ငြိမ်	-2627
ဖြည်း	-2628
ရေးရာ	-2629
▁လူငယ်	-2630
▁သရုပ်	-2631
▁အစ္စလာ	-2632
▁အတူတကွ	-2633
▁အနေနဲ့	-2634
▁ယူဆောင်	-2635
▁ကွန်ပျူတာ	-2636
▁အကျိုးဆက်	-2637
▁ဖော်ပြချက်	-2638
▁မိန့်ခွန်း	-2639
▁ကြေညာခဲ့သည်	-2640
၅၀	-2641
န္ဓ	-2642
ဝပ်	-2643
ဒရယ်	-2644
▁တူရ	-2645
▁ဗစ်	-2646
▁ရွာ	-2647
တဆင့်	-2648
▁ခုခံ	-2649
ဆင်ရေး	-2650
ုပ်နှံ	-2651
▁ပေါင်	-2652
▁ဘုရင်	-2653
ပြည်နယ်	-2654
▁တစ်ဝက်	-2655
▁သူ့ကို	-2656
▁ခေါ်ဆောင်	-2657
▁ဖျက်သိမ်း	-2658
▁နျူကလီးယား	-2659
▁အမျိုးအစား	-2660
▁တွေ့ရှိခဲ့သည်	-2661
▁အာဏာပိုင်များ	-2662
ညှ	-2663
ဋ္ဌ	-2664
နွယ်	-2665
▁ငယ်	-2666
▁၁၉၆	-2667
ဝှမ်း	-2668
▁ဆိုး	-2669
▁ဟာရီ	-2670
▁အသတ်	-2671
လင်တန်	-2672
ဦးဆုံး	-2673
နေပါသည်	-2674
▁မကြာမီ	-2675
▁သူများ	-2676
ဆွေးနွေး	-2677
▁စတင်ခဲ့	-2678
မေးနီးယား	-2679
▁ပုံနှိပ်	-2680
▁အသိအမှတ်	-2681
▁ရပ်ဆိုင်း	-2682
▁ဒီမိုကရေစီ	-2683
အမူ	-2684
ွစ်	-2685
စလင်	-2686
ထွေး	-2687
နာရီ	-2688
ဖိတ်	-2689
လိမ့်	-2690
▁လိမ်	-2691
▁အကွာ	-2692
▁အဆင်	-2693
▁ဂရင်း	-2694
▁တူရကီ	-2695
▁ရေတပ်	-2696
▁ရှောင်	-2697
▁သီတင်း	-2698
▁မြေပြင်	-2699
▁တိုက်ပွဲ	-2700
▁အာရုံစိုက်	-2701
▁အောက်တိုဘာ	-2702
▁ဘူ	-2703
▁ဂျေ	-2704
ကွန်း	-2705
စခန်း	-2706
ရိန်း	-2707
▁၂၀၁၀	-2708
သွေးကြွ	-2709
▁လေယာဥ်	-2710
▁ကွဲပြား	-2711
▁စိတ်ဝင်	-2712
▁ရေဒီယို	-2713
▁စက်တင်ဘာ	-2714
▁နိုဝင်ဘာ	-2715
▁နှိုင်းယ	-2716
▁အမြဲတမ်း	-2717
အဖွဲ့အစည်း	-2718
▁ပြိုင်ဘက်	-2719
▁ဂျော်ဂျီယာ	-2720
▁အခြေအနေများ	-2721
▁အချက်အလက်များ	-2722
▁အလုပ်သမားများ	-2723
ဝီ	-2724
၃၀	-2725
ကာလ	-2726
ဒမ်	-2727
ဒရာ	-2728
ပီအ	-2729
ရတ်	-2730
ရွေး	-2731
သဘော	-2732
▁ကွာ	-2733
▁ဒန်	-2734
▁မပါ	-2735
ယူမှု	-2736
▁တင်း	-2737
▁အမတ်	-2738
ပတ်သတ်	-2739
▁စလုံး	-2740
နေကြသည်	-2741
▁ကူးစက်	-2742
▁စက်မှု	-2743
▁စာရွက်	-2744
▁တချို့	-2745
▁မြှင့်	-2746
▁ရာဇဝတ်	-2747
▁အရေးပါ	-2748
လှုပ်ရှား	-2749
▁လုံလောက်	-2750
▁အိုလံပစ်	-2751
▁အရည်အချင်း	-2752
▁နှင့်ပတ်သက်၍	-2753
ဇူး	-2754
ဖြူ	-2755
▁တွဲ	-2756
▁ဒိုင်	-2757
▁ပိုက်	-2758
▁ဂျာမနီ	-2759
▁မရှိပါ	-2760
▁ဆင်းသက်	-2761
▁ထိုနေရာ	-2762
▁သီချင်း	-2763
▁တော်တော်	-2764
▁ကြေညာချက်	-2765
ဆု	-2766
ယီ	-2767
ဘီး	-2768
မရာ	-2769
လော်	-2770
▁စတီ	-2771
ဖွင့်	-2772
▁မွန်	-2773
▁ရှင်	-2774
▁စေရန်	-2775
▁လှည့်	-2776
သွားခဲ့	-2777
▁ဆရာဝန်	-2778
▁စည်းရုံး	-2779
▁အစ္စလာမ်	-2780
▁ဆီးရီးယား	-2781
▁ဟာရီကိန်း	-2782
▁တိုးတက်မှု	-2783
▁ခန့်မှန်းခြေ	-2784
အဆ	-2785
ဝစ်	-2786
ကျန်	-2787
ကျယ်	-2788
▁ထဲက	-2789
▁အခု	-2790
နေဂျာ	-2791
▁ဖုံး	-2792
▁ရုတ်တ	-2793
▁အခင်း	-2794
▁၎င်း၏	-2795
ရေးထိုး	-2796
ရေးရှင်း	-2797
▁ခေါ်ဆို	-2798
▁မှတဆင့်	-2799
▁အလောင်း	-2800
▁ဆိုးရွား	-2801
▁စစ်ဆင်ရေး	-2802
▁ပထမဦးဆုံး	-2803
▁စစ်သွေးကြွ	-2804
▁ယူနိုက်တက်	-2805
▁အွန်လိုင်း	-2806
▁နိုင်ငံတော်	-2807
▁မီးလောင်မှု	-2808
▁အမျိုးမျိုး	-2809
▁ရွှေ့ပြောင်း	-2810
ဘူ	-2811
လတ်	-2812
▁ရူ	-2813
ကျေး	-2814
ပါတ်	-2815
ိုလှ	-2816
▁ဘူး	-2817
▁အံ့	-2818
▁ခေတ်	-2819
▁ပရို	-2820
▁အနုပညာ	-2821
▁တို့သည်	-2822
▁ပိုပြီး	-2823
▁ဖြစ်စဉ်	-2824
▁လျော့ချ	-2825
▁လျှောက်	-2826
▁ဒုံးကျည်	-2827
▁အဆောက်အအုံ	-2828
▁အများပြည်သူ	-2829
▁ထိခိုက်ဒဏ်ရာ	-2830
ငါး	-2831
ကိုး	-2832
ဉာဏ်	-2833
နော်	-2834
မြား	-2835
▁တီး	-2836
▁အသေ	-2837
▁ဂါဇာ	-2838
▁မြစ်	-2839
▁ဟုတ်	-2840
အရာရှိ	-2841
▁ကိုက်	-2842
ယူခြင်း	-2843
ရှင်တန်	-2844
ဝန်ကြီး	-2845
▁စစ်ရေး	-2846
▁သေးငယ်	-2847
▁အလားတူ	-2848
▁ဗီဒီယို	-2849
▁အပြည့်အ	-2850
▁အပြုအမူ	-2851
▁မန်နေဂျာ	-2852
▁ရဟတ်ယာဉ်	-2853
▁လှုံ့ဆော်	-2854
▁သီတင်းပတ်	-2855
▁အထောက်အပံ့	-2856
▁နှိုင်းယှဉ်	-2857
▁အစီရင်ခံစာများ	-2858
ခဏ	-2859
စိ	-2860
ထူ	-2861
▁,	-2862
▁ဘဝ	-2863
▁မရ	-2864
ဂျီး	-2865
သာသာ	-2866
စေခဲ့	-2867
နေတယ်	-2868
▁ဂျီအ	-2869
▁မှား	-2870
▁အပို	-2871
ကာကွယ်	-2872
▁ကင်ဆာ	-2873
▁စာနယ်	-2874
▁အာရပ်	-2875
▁ကျော်လ	-2876
▁ရာတွင်	-2877
▁ကမ်းခြေ	-2878
▁အမှုဆောင်	-2879
▁ပြုလုပ်ခဲ့	-2880
▁ကြိုးစားမှု	-2881
▁ခြိမ်းခြောက်မှု	-2882
ဖီ	-2883
လူး	-2884
က်ဖ်	-2885
ခရီး	-2886
လှစ်	-2887
▁စတု	-2888
▁ဆစ်	-2889
▁မယ်	-2890
ခံစား	-2891
ရွှေ့	-2892
▁ဆန်း	-2893
▁ယူကေ	-2894
ကျွမ်း	-2895
▁ကိုလံ	-2896
▁ရမှတ်	-2897
▁လိမ့်	-2898
သွားသော	-2899
▁နယ်စပ်	-2900
အကြောင်း	-2901
▁ကြီးမား	-2902
▁ကွန်ယက်	-2903
▁အင်ဂျင်	-2904
▁စုဆောင်း	-2905
ထိန်းသိမ်း	-2906
▁စာနယ်ဇင်း	-2907
▁ဝါရှင်တန်	-2908
▁မကြာသေးမီက	-2909
▁ဘေးအန္တရာယ်	-2910
▁အသိအမှတ်ပြု	-2911
▁ပြောခဲ့ပါတယ်	-2912
သ်	-2913
ခြံ	-2914
ဇက်	-2915
▁ပရ	-2916
ချဲ့	-2917
စွက်	-2918
သန့်	-2919
▁ဘရာ	-2920
ယာလန်	-2921
သူတွေ	-2922
▁ခွေး	-2923
▁မွတ်	-2924
သိသာသာ	-2925
▁ဖြည့်	-2926
▁ဝန်ခံ	-2927
▁အကယ်၍	-2928
▁အယူခံ	-2929
ရစ္ဆာန်	-2930
သင်္ဘော	-2931
▁ရဲများ	-2932
▁အရှိန်	-2933
▁တစ်လုံး	-2934
▁သဘောထား	-2935
▁အစီအစဥ်	-2936
▁တိုက်ခတ်	-2937
▁ရုတ်တရက်	-2938
▁အင်္ဂလိပ်	-2939
▁ရှုံးနိမ့်	-2940
▁လွှမ်းမိုး	-2941
▁အရင်းအမြစ်	-2942
ငှ	-2943
က္ခာ	-2944
မျှတ	-2945
အထား	-2946
▁စက္က	-2947
▁ဆွစ်	-2948
အခွင့်	-2949
▁စိန့်	-2950
▁ဖိုင်	-2951
▁အသေခံ	-2952
▁ဂျာနယ်	-2953
▁ရပ်တည်	-2954
▁ရုပ်သံ	-2955
လိမ့်မည်	-2956
▁ထူးခြား	-2957
ရှင်းလင်း	-2958
▁တင်သွင်း	-2959
▁သိသိသာသာ	-2960
▁အမြောက်အ	-2961
▁ဆောင်းပါး	-2962
▁အောက်တွင်	-2963
▁ပြီးခဲ့သည့်	-2964
▁ဖြစ်လိမ့်မည်	-2965
ဏ်း	-2966
ဘာသာ	-2967
မှုး	-2968
ရသေး	-2969
▁ဇနီး	-2970
▁လျင်	-2971
▁အာရှ	-2972
▁ဝယ်ယူ	-2973
ထုတ်မှု	-2974
နေထိုင်	-2975
ေ့အကြုံ	-2976
▁ဆိုင်း	-2977
▁မဲဆန္ဒ	-2978
▁အားပေး	-2979
▁စဉ်တွင်	-2980
▁အလားအလာ	-2981
▁ဥက္ကဋ္ဌ	-2982
▁ချိတ်ဆက်	-2983
▁လက်ထောက်	-2984
နိုင်ပါသည်	-2985
▁နယူးယောက်	-2986
▁ပြန်ပေးဆွဲ	-2987
▁အတွေ့အကြုံ	-2988
ပြောဆိုခဲ့သည်	-2989
ဒေါ့	-2990
ပတ်ဘ	-2991
ဗျား	-2992
သတ္တ	-2993
▁ကတ်	-2994
▁ဂီတ	-2995
▁၁၉၇	-2996
ရီယို	-2997
ွိုက်	-2998
▁ကလပ်	-2999
▁စိန်	-3000
▁ဆင့်	-3001
▁ဘုတ်	-3002
▁မြန်	-3003
▁လင်း	-3004
ဒေါ်လာ	-3005
▁လူသား	-3006
▁သယ်ယူ	-3007
အတိုင်း	-3008
▁ကျနော်	-3009
▁မရှိဘဲ	-3010
▁အလုပ်အ	-3011
▁ကလေးများ	-3012
▁ကြည့်ရှု	-3013
▁ဝမ်းနည်း	-3014
▁ဆောက်လုပ်	-3015
▁စမ်းသပ်မှု	-3016
▁ညှိနှိုင်း	-3017
▁ကိုယ်စားပြု	-3018
▁ဆွေးနွေးပွဲ	-3019
▁ပြောကြားသည်	-3020
▁သက်ရောက်မှု	-3021
▁လုပ်ဆောင်မှု	-3022
▁ထိန်းချုပ်မှု	-3023
ခို	-3024
ဂရီ	-3025
ဘင်	-3026
နီယာ	-3027
ေးလ်	-3028
▁စဥ်	-3029
ခံထား	-3030
လျှက်	-3031
▁ချီး	-3032
ပတ်လည်	-3033
အိုင်အ	-3034
▁ခုနစ်	-3035
▁သမဂ္ဂ	-3036
▁သူငယ်	-3037
▁သူသည်	-3038
▁အပျက်	-3039
ရှိုင်း	-3040
▁နံပါတ်	-3041
▁ဖြစ်သူ	-3042
▁မျှော်	-3043
▁တစ်ဆယ့်	-3044
▁သတ်ဖြတ်	-3045
ပို့ဆောင်	-3046
▁ပျက်ကွက်	-3047
▁လိုအပ်သည်	-3048
▁လွတ်လပ်သော	-3049
▁သတ္တုတွင်း	-3050
▁တင်ပြခဲ့သည်	-3051
▁တပ်ဖွဲ့များ	-3052
▁သဘောတူညီမှု	-3053
▁ကြိုးပမ်းမှု	-3054
▁စာရွက်စာတမ်း	-3055
▁တနင်္ဂနွေနေ့	-3056
▁ဖော်ပြထားသည်	-3057
ပြောကြားခဲ့သည်	-3058
▁အဖ	-3059
ဆိုတာ	-3060
လက်စ်	-3061
ို့စ်	-3062
▁ချစ်	-3063
▁ယာယီ	-3064
▁သလို	-3065
▁၂၀၀၃	-3066
နေသည့်	-3067
▁ထိုင်း	-3068
▁ပိတ်ပင်	-3069
▁နှင့်အတူ	-3070
▁အပြင်ဘက်	-3071
▁သတင်းပို့	-3072
▁စိုက်ပျိုး	-3073
▁ဖြစ်လာခဲ့သည်	-3074
ကျူ	-3075
စတင်	-3076
ဆန်း	-3077
တွယ်	-3078
နယူး	-3079
▁ဂူဂ	-3080
▁မူး	-3081
▁ဟယ်	-3082
▁၁၀ဝ	-3083
တစ်ခု	-3084
အောက်	-3085
မ်းမျှ	-3086
ရှာဖွေ	-3087
▁ကုသမှု	-3088
▁တပ်ဆင်	-3089
▁လည်ပတ်	-3090
▁ခွဲစိတ်	-3091
▁နှောင့်	-3092
▁တည်းဖြတ်	-3093
▁အမှုထမ်း	-3094
▁ကမ်းလှမ်း	-3095
▁ကိုလံဘီယာ	-3096
▁မှားယွင်း	-3097
ပစ္စည်းများ	-3098
▁လက်နက်များ	-3099
▁အိုင်ယာလန်	-3100
▁ထုတ်လုပ်မှု	-3101
▁ဖြစ်ပွားခဲ့	-3102
▁မူပိုင်ခွင့်	-3103
ယျ	-3104
၂၀	-3105
တော	-3106
▁၂၆	-3107
▁၄၅	-3108
▁၈၀	-3109
လွှာ	-3110
▁စူး	-3111
▁မိဘ	-3112
က်အခဲ	-3113
ညွှန်	-3114
ပုဂ္ဂ	-3115
လီဘန်	-3116
လှည့်	-3117
ဟာမက်	-3118
အများ	-3119
ိုရမ်	-3120
▁ကဏ္ဍ	-3121
▁လက်မ	-3122
▁ဟော့	-3123
▁အဘယ်	-3124
ဖော်ပြ	-3125
အခြေခံ	-3126
▁ဆိုက်	-3127
▁အမှား	-3128
မြန်စွာ	-3129
▁ဆိုသော	-3130
▁တင်ဆက်	-3131
▁နည်းပြ	-3132
▁ဖြစ်နေ	-3133
▁ယူတီစီ	-3134
▁အပြင်း	-3135
▁ကလင်တန်	-3136
▁ကိုလည်း	-3137
▁စည်းကမ်း	-3138
▁ဒီဇိုင်း	-3139
▁မျက်မြင်	-3140
▁ရည်မှန်း	-3141
ကိုယ်တိုင်	-3142
▁ပိုင်ရှင်	-3143
▁လိုအပ်သော	-3144
▁ထင်မြင်ချက်	-3145
▁ရင်းနှီးမြှ	-3146
▁လွှဲပြောင်း	-3147
▁ဆုံးရှုံးမှု	-3148
▁ဟီ	-3149
ဂန်န	-3150
ဝန်း	-3151
▁ရှု	-3152
င်္ကာ	-3153
မေးလ်	-3154
▁အသီး	-3155
စုနှစ်	-3156
မှောက်	-3157
▁ဖိလစ်	-3158
▁အာရုံ	-3159
မားဆုံး	-3160
▁ဗိုင်း	-3161
▁မကြာခဏ	-3162
▁မဲဆွယ်	-3163
▁ဒုံးပျံ	-3164
▁ဝီကီပီး	-3165
▁မော်တော်	-3166
▁လူပေါင်း	-3167
▁အပူချိန်	-3168
▁ကျူးကျော်	-3169
▁လေယာဉ်မှူး	-3170
▁သို့ရာတွင်	-3171
▁သူငယ်ချင်း	-3172
▁အတည်ပြုခဲ့သည်	-3173
ဒစ်	-3174
▁၂၈	-3175
▁၃၅	-3176
တူညီ	-3177
နာမီ	-3178
▁ဗန်	-3179
▁လတ်	-3180
ဆက်ဆံ	-3181
မကြီး	-3182
အယ်လ်	-3183
▁ကြေး	-3184
▁ပျံ့	-3185
▁ရှည်	-3186
▁လော့	-3187
▁အဲဒါ	-3188
▁ယူရို	-3189
▁ဆိုလို	-3190
▁အာဖဂန်	-3191
▁နှစ်စဉ်	-3192
▁အခက်အခဲ	-3193
▁အိတ်ချ်	-3194
▁စိန်ခေါ်	-3195
ပြောခဲ့သည်	-3196
▁ကျယ်ပြန့်	-3197
▁ကျော်ကြား	-3198
▁ဖြစ်လာသည်	-3199
▁အငြင်းပွားမှု	-3200
တံ	-3201
▁.	-3202
ကွာ	-3203
ဗား	-3204
▁၂၉	-3205
ဂရက်	-3206
စိန်	-3207
ဆည်း	-3208
ယှက်	-3209
လီယာ	-3210
ဝဲလ်	-3211
အော်	-3212
▁ဖတ်	-3213
▁လွဲ	-3214
▁အစု	-3215
▁အေး	-3216
▁ဂျူး	-3217
▁နော်	-3218
▁မိတ်	-3219
▁ရွှေ	-3220
▁လစ်ဘ	-3221
▁သာမက	-3222
ခွင့်ရ	-3223
ုဒ္ဒရာ	-3224
▁ဘတ်စ်	-3225
▁အမည်မ	-3226
တိုးတက်	-3227
▁တံဆိပ်	-3228
▁ဘရာဇီး	-3229
▁ရှိတယ်	-3230
▁ဒီဇင်ဘာ	-3231
▁ဖက်ဒရယ်	-3232
▁အသီးသီး	-3233
▁အာဖဂန်န	-3234
▁ဒေသတွင်း	-3235
▁ရလဒ်များ	-3236
▁အပြစ်တင်	-3237
▁တိရစ္ဆာန်	-3238
▁ပေါင်းစပ်	-3239
▁ယုံကြည်မှု	-3240
▁ထောက်ပံ့မှု	-3241
ခွ	-3242
ဋိ	-3243
▁ေ	-3244
ဖီး	-3245
အခြ	-3246
▁ဒေ	-3247
▁၆၀	-3248
ပြတ်	-3249
ရိပ်	-3250
ေနပ်	-3251
းစား	-3252
▁ကပ်	-3253
▁တူး	-3254
▁တော	-3255
▁ခိုး	-3256
▁ဖိတ်	-3257
▁အော့	-3258
ေအောက်	-3259
▁ပေမဲ့	-3260
▁ယူအက်	-3261
▁သပိတ်	-3262
▁သိရှိ	-3263
▁နေအိမ်	-3264
▁လိင်တူ	-3265
▁ဝတ်ဆင်	-3266
▁အားနည်း	-3267
အောင်မြင်	-3268
▁ကျူးလွန်	-3269
▁ဆက်ဆံရေး	-3270
▁လူသတ်မှု	-3271
▁လွှတ်တင်	-3272
▁ဖွင့်လှစ်	-3273
▁အနောက်ဘက်	-3274
▁မောင်းနှင်	-3275
▁ပါဝင်ခဲ့သည်	-3276
▁ဖြစ်နိုင်ချေ	-3277
▁တရားစွဲဆိုမှု	-3278
▁ရှာဖွေတွေ့ရှိ	-3279
▁အာဖဂန်နစ္စတန်	-3280
ပွ	-3281
စ်ည	-3282
ထရီ	-3283
ဖယ်	-3284
ယစ်	-3285
▁လု	-3286
ဂရမ်	-3287
ထွား	-3288
နှေး	-3289
ရင့်	-3290
ရန်း	-3291
လှန်	-3292
အစီး	-3293
အိတ်	-3294
▁ဘီအ	-3295
▁ရုံ	-3296
အရင်း	-3297
▁ပေါ့	-3298
ဖြစ်စေ	-3299
▁ဂျိုး	-3300
▁တယ်လီ	-3301
ရပ်များ	-3302
▁ဆူနာမီ	-3303
တစ်ယောက်	-3304
▁ခင်ဗျား	-3305
▁ဗုံးခွဲ	-3306
▁မရှိခဲ့	-3307
▁မဟာမိတ်	-3308
▁လိမ်လည်	-3309
▁ဩစတေးလျ	-3310
▁ကြီးထွား	-3311
▁ဇာတ်လမ်း	-3312
▁တစ်ချို့	-3313
▁ပေါ်ထွက်	-3314
ပါလိမ့်မည်	-3315
▁ထို့အပြင်	-3316
▁ပစ်ခတ်မှု	-3317
▁ပေးခဲ့သည်	-3318
▁မိန်းကလေး	-3319
▁သတိပေးချက်	-3320
▁ကုမ္ပဏီများ	-3321
▁မျှော်မှန်း	-3322
▁ဘုရားကျောင်း	-3323
▁လက်မှတ်ရေးထိုး	-3324
▁တွေ့ဆုံမေးမြန်း	-3325
ဖျ	-3326
ဟ်	-3327
စန်	-3328
့ခ်	-3329
▁၃၁	-3330
န္ဓာ	-3331
လျူအ	-3332
အာဏာ	-3333
ီရို	-3334
▁ကက်	-3335
▁စွာ	-3336
▁ပဋိ	-3337
▁ဖန်	-3338
▁အခါ	-3339
ထဲရေး	-3340
ဘုန်း	-3341
မတ်စ်	-3342
▁မာရီ	-3343
▁မိမိ	-3344
▁အန်ဒ	-3345
ထားတဲ့	-3346
ပေးသော	-3347
လျောက်	-3348
▁ပျော်	-3349
▁ဟူသော	-3350
▁အနှံ့	-3351
စာချုပ်	-3352
ယုံကြည်	-3353
သုံးသပ်	-3354
▁ရှယ်ယာ	-3355
▁အကောင်	-3356
▁အစွန်း	-3357
▁ခွဲခြား	-3358
▁အနေအထား	-3359
▁တရားမျှတ	-3360
▁ထွက်ပြေး	-3361
▁သမုဒ္ဒရာ	-3362
အခွင့်အရေး	-3363
▁စီရင်ချက်	-3364
▁မြှင့်တင်	-3365
▁လက်ခံရရှိ	-3366
▁အပေါ်တွင်	-3367
▁ပြောကြားချက်	-3368
▁အကြီးမားဆုံး	-3369
▁တောင်းဆိုချက်	-3370
ကော်	-3371
ဗျူး	-3372
အထည်	-3373
▁လင်	-3374
ဋ္ဌာန	-3375
အလမ်း	-3376
▁ဒါမှ	-3377
▁၂၀၀၀	-3378
စ်ညမ်း	-3379
ရာနေရာ	-3380
▁တိုနီ	-3381
▁အရမ်း	-3382
▁အလင်း	-3383
ဖြူတော်	-3384
▁ကင်မရာ	-3385
▁နှလုံး	-3386
▁သတိပြု	-3387
▁နွေရာသီ	-3388
▁မည်သို့	-3389
▁ရက်သတ္တ	-3390
▁လက်တွေ့	-3391
ပြီးနောက်	-3392
▁စွမ်းရည်	-3393
▁တစ်ကြိမ်	-3394
▁တိုင်းတာ	-3395
▁မိုဟာမက်	-3396
နိုင်ခြင်း	-3397
▁တရားစီရင်	-3398
▁ဝီကီသတင်း	-3399
▁အများကြီး	-3400
ပိုရေးရှင်း	-3401
▁အထောက်အထား	-3402
▁အသုံးပြုမှု	-3403
ဂူ	-3404
ဟီ	-3405
တူး	-3406
ဒနီ	-3407
ဒေး	-3408
စကို	-3409
တ္တာ	-3410
တ္ထု	-3411
ဖုံး	-3412
▁ဒက်	-3413
▁ရှီ	-3414
▁၀န်	-3415
ရမည့်	-3416
▁ဖေါ်	-3417
▁ဘော့	-3418
▁သမား	-3419
▁အရက်	-3420
▁အလို	-3421
▁၂၀၁၂	-3422
ထားမှု	-3423
ိုင်းအ	-3424
▁ကိန်း	-3425
▁ပါ၀င်	-3426
▁ပြင်ပ	-3427
▁လိုင်	-3428
ပေးပို့	-3429
ပ်အတည်း	-3430
လုံခြုံ	-3431
သင့်သည်	-3432
▁ကျွန်မ	-3433
▁ဆိုရင်	-3434
▁မိုးလေ	-3435
▁မူးယစ်	-3436
▁အရေးယူ	-3437
ကြီးများ	-3438
ပြင်းထန်	-3439
▁စက္ကန့်	-3440
▁စူးစမ်း	-3441
▁ပြဌာန်း	-3442
▁မီးရထား	-3443
▁စကားပြော	-3444
▁မွေးဖွား	-3445
▁သေဆုံးသူ	-3446
▁ကိုင်တွယ်	-3447
▁တစ်ခုတည်း	-3448
▁တောင်းပန်	-3449
▁ဒါမှမဟုတ်	-3450
▁ပြည်ထဲရေး	-3451
▁ပြသခဲ့သည်	-3452
▁ဖော်ပြခဲ့	-3453
▁သတင်းများ	-3454
▁သူတို့ကို	-3455
▁နှစ်ပေါင်း	-3456
▁ရက်သတ္တပတ်	-3457
▁သရုပ်ဆောင်	-3458
▁နှင့်ပတ်သတ်	-3459
▁ပစ္စည်းများ	-3460
▁မြင့်မားသော	-3461
▁အခိုင်အမာဆို	-3462
▁အဖွဲ့အစည်းများ	-3463
ငံ့	-3464
ဘို	-3465
ထုံး	-3466
▁ဖင်	-3467
ပိုက်	-3468
ပျော်	-3469
ေ့စပ်	-3470
ွယ်ကူ	-3471
ဖွယ်ရာ	-3472
အစိုးရ	-3473
▁ဒီဂရီ	-3474
▁ယခင်က	-3475
▁အမြတ်	-3476
စိတ်တစ်	-3477
▁နယ်ပယ်	-3478
▁ပြိုကျ	-3479
▁လက္ခဏာ	-3480
▁လောင်း	-3481
▁အီဂျစ်	-3482
▁ထုတ်ပယ်	-3483
▁ပညာရှင်	-3484
▁မှတ်သား	-3485
▁ရရှိခဲ့	-3486
▁ဂြိုလ်တု	-3487
▁ဆက်တိုက်	-3488
▁ထိပ်တန်း	-3489
▁ဝီကီနယူး	-3490
▁မြောက်ဘက်	-3491
▁ထိခိုက်မှု	-3492
▁အိမ်ဖြူတော်	-3493
▁အနိုင်ရခဲ့သည်	-3494
စက	-3495
လိက	-3496
ဥ်း	-3497
▁ဘွ	-3498
င်နီ	-3499
ဏန်း	-3500
ဒိုး	-3501
▁ဟား	-3502
လျဉ်း	-3503
▁ဆဲလ်	-3504
▁နာဆာ	-3505
▁ဖခင်	-3506
▁ယာဥ်	-3507
▁သန့်	-3508
ဘိုင်း	-3509
▁ဖိအား	-3510
▁မလုပ်	-3511
▁အခမဲ့	-3512
▁အမ်စီ	-3513
▁ဦးစီး	-3514
မရှိသော	-3515
▁ဂျာမန်	-3516
▁ပျက်ကျ	-3517
▁ဖင်လန်	-3518
▁ရီပတ်ဘ	-3519
▁ကုန်တင်	-3520
▁တာလီဘန်	-3521
▁အစောင့်	-3522
▁ထုတ်ကုန်	-3523
▁နောက်ဆက်	-3524
▁ဖိအားပေး	-3525
▁ပေါ်ပေါက်	-3526
▁ရာဇဝတ်မှု	-3527
▁လိုအပ်ချက်	-3528
▁လူသိများသော	-3529
▁သိသာထင်ရှား	-3530
▁လုပ်ငန်းများ	-3531
ထ်	-3532
ကုသ	-3533
ပူး	-3534
လီး	-3535
ဟမ်	-3536
▁ဘေ	-3537
ခွန်	-3538
ဓါတ်	-3539
နွန်	-3540
ဗွန်	-3541
ရှစ်	-3542
လျှံ	-3543
ီအို	-3544
▁ဂရု	-3545
▁ဓား	-3546
ချခဲ့	-3547
ဒဗလျူ	-3548
အဖြစ်	-3549
▁ကြုံ	-3550
▁ဆော့	-3551
▁ဆော်	-3552
▁တပ်မ	-3553
▁ရွေ့	-3554
▁ဟွန်	-3555
▁အိုး	-3556
င်းပယ်	-3557
နိမိတ်	-3558
နေရသည်	-3559
မောက္ခ	-3560
ောင်းအ	-3561
▁ဇွန်လ	-3562
▁အပြန်	-3563
▁အမှန်	-3564
▁ဩဂုတ်	-3565
ပြင်ဆင်	-3566
▁ဂျိမ်း	-3567
▁နေ့စဉ်	-3568
▁သြဂုတ်	-3569
▁အမေရိက	-3570
ဆန့်ကျင်	-3571
ရေးအဖွဲ့	-3572
▁ခိုင်မာ	-3573
▁ဂုဏ်ပြု	-3574
▁တို့ကို	-3575
ပုဂ္ဂိုလ်	-3576
▁ငြင်းပယ်	-3577
▁ပုဂ္ဂလိက	-3578
▁ပျမ်းမျှ	-3579
အခြေခံဥပဒေ	-3580
▁ရည်ညွှန်း	-3581
▁တစ်စိတ်တစ်	-3582
▁ထို့ကြောင့်	-3583
▁နှစ်ခုစလုံး	-3584
▁လုပ်ပိုင်ခွင့်	-3585
ပြသ	-3586
အစာ	-3587
အယ်	-3588
့စ်	-3589
▁၃၆	-3590
ထရို	-3591
လူထု	-3592
▁ဆုတ	-3593
တုန်း	-3594
ရွှင်	-3595
လီကန်	-3596
လျော်	-3597
အမြတ်	-3598
▁ချင်	-3599
▁စမစ်	-3600
▁မလို	-3601
▁အဖြေ	-3602
▁ဤအရာ	-3603
ကြေငြာ	-3604
မှုတွေ	-3605
▁ကလည်း	-3606
▁မိခင်	-3607
▁ရေကူး	-3608
▁သောက်	-3609
နိုင်ပါ	-3610
ုပ်ကွေး	-3611
ုပ်ထွေး	-3612
▁ဆစ်ဒနီ	-3613
▁တီထွင်	-3614
▁ပိုလန်	-3615
▁လွတ်ငြ	-3616
▁ဒေသများ	-3617
▁မြင့်မား	-3618
▁မွတ်စလင်	-3619
▁အနီးအနား	-3620
▁ကောင်းစွာ	-3621
▁ဇန်နဝါရီလ	-3622
▁ထုတ်လွှတ်	-3623
▁ပြောပါတယ်	-3624
▁ပျက်စီးမှု	-3625
▁အနိုင်ရရှိ	-3626
▁ကြိမ်မြောက်	-3627
▁တွန်းအားပေး	-3628
▁ပြောင်းရွှေ့	-3629
▁အစီရင်ခံခဲ့သည်	-3630
စကာ	-3631
စော	-3632
ဇင်	-3633
ဒယ်	-3634
ဒီး	-3635
လမ်	-3636
တမန်	-3637
ယွန်	-3638
▁ဒစ်	-3639
▁မေလ	-3640
▁ယဉ်	-3641
▁လစာ	-3642
▁လား	-3643
▁အလံ	-3644
အကျယ်	-3645
▁ကွယ်	-3646
▁ခန်း	-3647
▁စင်း	-3648
▁ဖရန်	-3649
▁ဘိုး	-3650
▁အနား	-3651
▁ဧည့်	-3652
▁၂၀ဝ၈	-3653
▁ဂျူရီ	-3654
▁နောင်	-3655
စေခြင်း	-3656
▁ဆင်းရဲ	-3657
▁ပေးအပ်	-3658
▁ရောဘတ်	-3659
▁ကျေးဇူး	-3660
▁ဆေးလိပ်	-3661
▁တစ်ဖွဲ့	-3662
အုပ်ချုပ်	-3663
▁ပါမောက္ခ	-3664
▁ပေးဆောင်	-3665
▁ဖြစ်ပျက်	-3666
▁ရှိပါသည်	-3667
▁တစ်ခုလုံး	-3668
▁နယ်နိမိတ်	-3669
▁ပြောပါသည်	-3670
▁ဖော်ပြသည်	-3671
▁အင်တာဗျူး	-3672
▁နောက်ဆက်တွဲ	-3673
▁အခွင့်အလမ်း	-3674
▁အဆိုပြုချက်	-3675
▁ဝီကီပီးဒီးယား	-3676
▁တောင်းဆိုခဲ့သည်	-3677
ဒူ	-3678
ထရာ	-3679
ဗျူ	-3680
▁ဟေ	-3681
ကဏ္ဍ	-3682
ခြည်	-3683
▁စပ်	-3684
▁တခု	-3685
▁လယ်	-3686
ရိုင်	-3687
▁ဆိပ်	-3688
▁လိပ်	-3689
▁သမီး	-3690
▁အဲလ်	-3691
ကျွန်း	-3692
▁ကနေဒီ	-3693
▁ချို့	-3694
▁ဖီဂျီ	-3695
▁ဖြင့်	-3696
▁ဝိုင်	-3697
ခြားနား	-3698
ဆိုသော်	-3699
▁စာတမ်း	-3700
▁တွဲဖက်	-3701
▁နာကျင်	-3702
▁မိုင်း	-3703
▁သံတမန်	-3704
ကျော်သက်	-3705
ယူခဲ့သည်	-3706
▁တစ်စင်း	-3707
▁တော်ဝင်	-3708
▁ပတ်သက်၍	-3709
▁လစ်ဘရယ်	-3710
▁သင်တန်း	-3711
▁ကြီးကြပ်	-3712
▁တိုးပွား	-3713
▁ထိုင်ဝမ်	-3714
▁ဝန်ဆောင်	-3715
▁သက်ရောက်	-3716
▁နှုတ်ထွက်	-3717
▁ဖြစ်ကြသည်	-3718
▁ဖြတ်တောက်	-3719
▁သွားရောက်	-3720
▁အပျက်အစီး	-3721
▁အသံလွှင့်	-3722
▁ထိုကဲ့သို့	-3723
▁အကြီးအကျယ်	-3724
▁လက်နက်ကိုင်	-3725
▁ရိုမေးနီးယား	-3726
▁အသုံးပြုခြင်း	-3727
ဂါး	-3728
၀ဝ၀	-3729
▁ကေ	-3730
▁၇၀	-3731
ဂျန်	-3732
ဆလင်	-3733
ရော့	-3734
▁ကဒ်	-3735
▁ချေ	-3736
ခံရသူ	-3737
လေ့လာ	-3738
လွန်း	-3739
သက်သေ	-3740
အတန်း	-3741
ွိုင်	-3742
▁ကြယ်	-3743
▁ကြော	-3744
▁ပါရာ	-3745
▁သဘာ၀	-3746
▁၂၀၀၉	-3747
ဗေးတစ်	-3748
▁ဂိမ်း	-3749
▁စာရေး	-3750
▁ဆိုမာ	-3751
ကျေးမှု	-3752
အခြေအနေ	-3753
▁ကြားနာ	-3754
▁တက်ကြွ	-3755
▁သဖြင့်	-3756
▁အကြွေး	-3757
တိုက်မှု	-3758
▁စိတ်ကူး	-3759
▁တစ်နှစ်	-3760
▁သက်သေပြ	-3761
▁အစားအစာ	-3762
▁အရပ်သား	-3763
▁ဆိပ်ကမ်း	-3764
▁တပ်မတော်	-3765
▁တောင်ဘက်	-3766
▁သြစတေးလျ	-3767
▁ဆိုင်းငံ့	-3768
▁မူးယစ်ဆေး	-3769
▁လျော့နည်း	-3770
▁သေးငယ်သော	-3771
▁စွမ်းဆောင်	-3772
▁ဆယ်ကျော်သက်	-3773
▁မြို့တော်ဝန်	-3774
▁မိုက်ခရိုဆော့	-3775
▁သယ်ယူပို့ဆောင်	-3776
▁အကြောင်းပြချက်	-3777
▁ဆက်လက်လုပ်ဆောင်	-3778
ဝံ	-3779
ပြေ	-3780
မှူ	-3781
▁ဘ၀	-3782
▁မျ	-3783
ခွင်	-3784
ထရစ်	-3785
နေတာ	-3786
အိုအ	-3787
▁ဂို	-3788
▁ပစိ	-3789
▁အထဲ	-3790
ခဲ့တာ	-3791
ဂဏန်း	-3792
အမင်း	-3793
▁ထမ်း	-3794
ကျင်းပ	-3795
ကြိုက်	-3796
ပေးမှု	-3797
ရောင်း	-3798
လောဆယ်	-3799
▁ကြမ်း	-3800
▁တံတား	-3801
▁ဒဗလျူ	-3802
▁ဘယ်သူ	-3803
▁မြင်း	-3804
▁စေ့စပ်	-3805
▁ပူးတွဲ	-3806
▁သူ့ရဲ့	-3807
▁စေလွှတ်	-3808
▁ဆက်နွယ်	-3809
▁ပန်းခြံ	-3810
▁ဖြစ်တဲ့	-3811
▁ဘရောင်း	-3812
▁အရာများ	-3813
▁အိပ်ချ်	-3814
ထမ်းဆောင်	-3815
▁ဖောက်ခွဲ	-3816
▁ဖြတ်သန်း	-3817
▁အထက်တန်း	-3818
▁အသစ်များ	-3819
▁ဘာကြောင့်	-3820
လူမျိုးများ	-3821
▁ယုံကြည်သည်	-3822
▁အလယ်ပိုင်း	-3823
▁အလွန်အမင်း	-3824
▁နှောင့်နှေး	-3825
▁အကျဉ်းထောင်	-3826
▁ဖြစ်နိုင်ခြေ	-3827
▁အသုံးပြုသူများ	-3828
မရ	-3829
ခ်ျ	-3830
ခွေ	-3831
မှီ	-3832
ူပ်	-3833
▁ဥပ	-3834
ဂွန်	-3835
တိတ်	-3836
ဖေါ်	-3837
ယန်း	-3838
သင်း	-3839
ွှား	-3840
▁ဘင်	-3841
▁လူး	-3842
ကာဂို	-3843
ကျန်း	-3844
ဗလျူအ	-3845
လှုပ်	-3846
သေးပါ	-3847
အဆင့်	-3848
အသွေး	-3849
▁တန်း	-3850
▁အရာဝ	-3851
▁အိုအ	-3852
▁ခန္ဓာ	-3853
▁အလို့	-3854
ချခြင်း	-3855
ချင်းစီ	-3856
ပွဲများ	-3857
▁တစ်ပတ်	-3858
▁ရေကြီး	-3859
နိုင်တယ်	-3860
ပေါက်ကွဲ	-3861
▁ဖြန့်ဝေ	-3862
▁လာရောက်	-3863
ဖော်ကိုင်	-3864
▁စိတ်ပျက်	-3865
▁အိမ်ရှင်	-3866
▁ခေါင်းစဉ်	-3867
▁စာမျက်နှာ	-3868
▁သူတို့ရဲ့	-3869
▁ပြည်သူလူထု	-3870
▁ဦးဆောင်မှု	-3871
▁ကုန်သွယ်မှု	-3872
▁မျက်နှာပြင်	-3873
▁လျင်မြန်စွာ	-3874
▁အရေးကြီးသော	-3875
▁ဖြစ်နိုင်သော	-3876
▁အကြောင်းရင်း	-3877
▁ကောင်းမွန်သော	-3878
▁မျက်မြင်သက်သေ	-3879
▁လုပ်ဖော်ကိုင်	-3880
▁သတင်းထုတ်ပြန်	-3881
▁ငြင်းဆိုခဲ့သည်	-3882
▁တာဝန်ရှိသူများ	-3883
▁ကော်ပိုရေးရှင်း	-3884
ဗို	-3885
လျံ	-3886
ကာတာ	-3887
ချစ်	-3888
ပုန်	-3889
ဘွတ်	-3890
သည်း	-3891
အနက်	-3892
ိုဟ်	-3893
▁တေး	-3894
▁အပ်	-3895
ကျိုး	-3896
ဖြင့်	-3897
လီယမ်	-3898
▁ကော့	-3899
▁ကြက်	-3900
▁ဂျင်	-3901
▁ဆယ့်	-3902
▁တွေး	-3903
▁ဘရစ်	-3904
▁ဘော်	-3905
▁အေစီ	-3906
▁ကုန်း	-3907
▁ကျိုး	-3908
▁မိုးရ	-3909
▁သေဒဏ်	-3910
ထားပြီး	-3911
သွားမည်	-3912
▁တစ်နေ့	-3913
▁	-3914
်	-3915
း	-3916
ာ	-3917
ု	-3918
က	-3919
ေ	-3920
ိ	-3921
င	-3922
မ	-3923
တ	-3924
သ	-3925
န	-3926
ပ	-3927
့	-3928
အ	-3929
ြ	-3930
ရ	-3931
စ	-3932
ခ	-3933
ှ	-3934
လ	-3935
ွ	-3936
ည	-3937
ျ	-3938
ီ	-3939
ဲ	-3940
ဆ	-3941
ယ	-3942
ံ	-3943
ူ	-3944
ဖ	-3945
ါ	-3946
ထ	-3947
၊	-3948
။	-3949
ဒ	-3950
ဘ	-3951
ဝ	-3952
၏	-3953
ဟ	-3954
ဂ	-3955
္	-3956
၀	-3957
ဗ	-3958
၁	-3959
ဉ	-3960
၂	-3961
"	-3962
“	-3963
ဦ	-3964
ဇ	-3965
ဏ	-3966
”	-3967
၄	-3968
ဥ	-3969
၅	-3970
-	-3971
(	-3972
)	-3973
၃	-3974
၉	-3975
ဓ	-3976
.	-3977
၆	-3978
၍	-3979
၈	-3980
၎	-3981
၇	-3982
၌	-3983
ဌ	-3984
ဤ	-3985
ဩ	-3986
:	-3987
,	-3988
ဧ	-3989
ဈ	-3990
ဍ	-3991
ဋ	-3992
ဿ	-3993
`	-3994
%	-3995
