<pad>	0
<s>	0
</s>	0
<unk>	0
▁t	-0
he	-1
▁a	-2
in	-3
▁the	-4
re	-5
on	-6
er	-7
▁s	-8
▁w	-9
at	-10
ed	-11
▁o	-12
en	-13
an	-14
or	-15
▁c	-16
is	-17
▁b	-18
it	-19
▁f	-20
es	-21
al	-22
▁in	-23
▁p	-24
ar	-25
ing	-26
▁of	-27
▁to	-28
▁an	-29
as	-30
▁h	-31
ou	-32
ic	-33
▁m	-34
ion	-35
▁and	-36
▁d	-37
le	-38
ent	-39
▁th	-40
om	-41
il	-42
▁re	-43
▁T	-44
id	-45
▁A	-46
▁n	-47
▁be	-48
▁S	-49
st	-50
ve	-51
ro	-52
▁e	-53
▁l	-54
ad	-55
▁C	-56
ay	-57
▁that	-58
ot	-59
ol	-60
ct	-61
▁on	-62
▁M	-63
ter	-64
▁for	-65
ly	-66
ur	-67
▁The	-68
am	-69
im	-70
ce	-71
ation	-72
▁"	-73
ut	-74
▁g	-75
ver	-76
ir	-77
▁I	-78
ig	-79
▁st	-80
us	-81
▁is	-82
el	-83
▁was	-84
un	-85
▁P	-86
ow	-87
et	-88
ill	-89
ra	-90
▁B	-91
ith	-92
▁we	-93
▁at	-94
ch	-95
▁he	-96
▁wh	-97
ment	-98
▁with	-99
oun	-100
▁H	-101
▁con	-102
▁as	-103
os	-104
▁al	-105
ort	-106
and	-107
00	-108
▁de	-109
▁by	-110
ers	-111
ld	-112
▁R	-113
▁ha	-114
▁F	-115
ul	-116
ate	-117
est	-118
▁sa	-119
op	-120
▁N	-121
ri	-122
res	-123
rom	-124
▁D	-125
her	-126
▁it	-127
▁2	-128
ist	-129
▁1	-130
▁W	-131
▁U	-132
ew	-133
ac	-134
▁G	-135
▁have	-136
▁has	-137
▁pro	-138
▁se	-139
▁from	-140
▁are	-141
ain	-142
▁said	-143
red	-144
ak	-145
ag	-146
pp	-147
▁com	-148
th	-149
em	-150
▁L	-151
ear	-152
."	-153
igh	-154
▁v	-155
ia	-156
art	-157
if	-158
ity	-159
▁r	-160
▁ex	-161
▁were	-162
▁not	-163
▁E	-164
ore	-165
▁su	-166
oc	-167
▁J	-168
▁le	-169
ast	-170
ian	-171
pe	-172
▁O	-173
our	-174
▁y	-175
ding	-176
▁In	-177
ies	-178
▁been	-179
ust	-180
cc	-181
ial	-182
▁sh	-183
ess	-184
um	-185
qu	-186
▁un	-187
se	-188
▁his	-189
ich	-190
▁will	-191
ive	-192
ould	-193
iv	-194
day	-195
ice	-196
port	-197
all	-198
▁res	-199
ren	-200
▁ch	-201
▁go	-202
▁k	-203
ight	-204
ab	-205
▁or	-206
ard	-207
od	-208
gh	-209
ated	-210
▁pl	-211
ud	-212
ant	-213
ber	-214
ident	-215
▁K	-216
ap	-217
so	-218
ff	-219
▁had	-220
▁(	-221
up	-222
ack	-223
out	-224
ge	-225
fter	-226
▁which	-227
ound	-228
end	-229
ction	-230
▁St	-231
ep	-232
▁off	-233
ary	-234
ther	-235
▁this	-236
ime	-237
ide	-238
ok	-239
▁their	-240
▁j	-241
ost	-242
▁200	-243
▁who	-244
ry	-245
ine	-246
▁pe	-247
▁ar	-248
▁inc	-249
▁ag	-250
▁ab	-251
▁whe	-252
ount	-253
▁also	-254
pl	-255
▁but	-256
▁cont	-257
▁after	-258
ous	-259
▁they	-260
▁year	-261
ome	-262
▁cl	-263
ue	-264
ong	-265
ople	-266
ell	-267
▁Un	-268
▁Ch	-269
▁wor	-270
der	-271
ough	-272
▁int	-273
ire	-274
▁pol	-275
vern	-276
wo	-277
ub	-278
,"	-279
▁ad	-280
ations	-281
▁att	-282
▁report	-283
mer	-284
▁people	-285
li	-286
ign	-287
ition	-288
og	-289
ure	-290
▁comp	-291
▁sp	-292
ish	-293
ational	-294
▁out	-295
ace	-296
ates	-297
ip	-298
▁dis	-299
ran	-300
▁over	-301
age	-302
ame	-303
ree	-304
vernment	-305
▁us	-306
ited	-307
ik	-308
own	-309
▁te	-310
▁ne	-311
▁Th	-312
ond	-313
▁part	-314
▁all	-315
per	-316
ect	-317
▁would	-318
▁acc	-319
ical	-320
▁two	-321
ence	-322
ass	-323
ile	-324
ib	-325
▁say	-326
ult	-327
hed	-328
ress	-329
▁new	-330
▁man	-331
▁He	-332
ict	-333
▁rec	-334
uc	-335
▁one	-336
irst	-337
▁its	-338
▁up	-339
man	-340
▁government	-341
tern	-342
ake	-343
ite	-344
▁other	-345
iz	-346
▁app	-347
one	-348
av	-349
▁im	-350
▁V	-351
land	-352
▁en	-353
rit	-354
ase	-355
ark	-356
aw	-357
▁New	-358
aus	-359
▁first	-360
ail	-361
ved	-362
orm	-363
▁ev	-364
▁3	-365
▁sec	-366
pt	-367
▁count	-368
ording	-369
ral	-370
▁sc	-371
are	-372
▁about	-373
lic	-374
▁United	-375
▁more	-376
ose	-377
▁inv	-378
ied	-379
oll	-380
▁time	-381
resident	-382
▁19	-383
te	-384
ater	-385
ning	-386
ions	-387
int	-388
iss	-389
▁state	-390
inis	-391
rent	-392
ne	-393
▁pre	-394
ced	-395
▁me	-396
ons	-397
▁offic	-398
▁Al	-399
ru	-400
ft	-401
▁gr	-402
ade	-403
pect	-404
ove	-405
ters	-406
▁per	-407
▁do	-408
▁when	-409
ens	-410
old	-411
▁An	-412
vi	-413
▁ser	-414
ors	-415
▁ra	-416
▁into	-417
▁there	-418
▁dec	-419
ally	-420
ased	-421
▁qu	-422
ince	-423
act	-424
ec	-425
▁again	-426
▁work	-427
▁Aust	-428
▁bec	-429
we	-430
▁ro	-431
▁can	-432
▁Is	-433
▁4	-434
very	-435
ath	-436
vers	-437
arg	-438
ach	-439
ie	-440
The	-441
wn	-442
▁Austral	-443
▁fl	-444
▁fin	-445
▁being	-446
▁5	-447
▁Y	-448
fe	-449
enc	-450
ric	-451
vel	-452
illion	-453
▁lead	-454
ek	-455
ord	-456
▁ele	-457
000	-458
▁no	-459
▁ind	-460
▁incl	-461
oup	-462
▁mil	-463
ublic	-464
▁under	-465
inister	-466
▁tra	-467
▁than	-468
reat	-469
▁comm	-470
ang	-471
▁It	-472
uring	-473
▁co	-474
▁supp	-475
▁her	-476
oy	-477
▁day	-478
▁attack	-479
amp	-480
ory	-481
▁some	-482
▁so	-483
▁kill	-484
,000	-485
▁last	-486
ob	-487
▁them	-488
▁ann	-489
▁loc	-490
▁years	-491
▁any	-492
▁rem	-493
able	-494
▁bl	-495
▁spe	-496
ating	-497
ans	-498
▁official	-499
▁reg	-500
fore	-501
▁only	-502
ance	-503
▁Z	-504
▁am	-505
▁min	-506
▁against	-507
▁police	-508
▁ear	-509
ces	-510
du	-511
ned	-512
ever	-513
rough	-514
ause	-515
ss	-516
▁three	-517
▁US	-518
gan	-519
oss	-520
ah	-521
▁could	-522
▁reported	-523
eral	-524
ris	-525
med	-526
oint	-527
▁team	-528
▁States	-529
ists	-530
▁air	-531
▁bet	-532
ision	-533
▁inf	-534
aim	-535
uss	-536
ck	-537
ork	-538
▁mem	-539
▁car	-540
▁add	-541
omm	-542
▁des	-543
▁call	-544
".	-545
▁act	-546
olog	-547
ities	-548
ke	-549
air	-550
▁claim	-551
ick	-552
ind	-553
oth	-554
ital	-555
▁Acc	-556
▁cons	-557
▁before	-558
▁made	-559
ood	-560
▁rele	-561
▁20	-562
ternational	-563
bs	-564
▁mon	-565
rib	-566
▁cur	-567
▁found	-568
▁According	-569
ual	-570
▁announ	-571
▁week	-572
▁since	-573
ock	-574
▁country	-575
ution	-576
way	-577
ents	-578
▁him	-579
▁law	-580
▁war	-581
ike	-582
ving	-583
leg	-584
▁kn	-585
owever	-586
az	-587
uil	-588
rest	-589
▁prov	-590
▁invest	-591
▁conf	-592
▁group	-593
▁compan	-594
su	-595
▁near	-596
▁plan	-597
ween	-598
outh	-599
▁Ind	-600
▁million	-601
▁6	-602
▁rep	-603
ments	-604
oh	-605
▁7	-606
▁while	-607
▁Minister	-608
eal	-609
ven	-610
▁killed	-611
raq	-612
aking	-613
ash	-614
ll	-615
▁may	-616
▁between	-617
▁during	-618
rael	-619
▁Iraq	-620
▁milit	-621
xt	-622
ency	-623
▁Le	-624
other	-625
▁where	-626
edia	-627
▁inter	-628
bers	-629
▁eff	-630
ook	-631
▁spok	-632
We	-633
▁Sc	-634
▁cr	-635
ourt	-636
▁resp	-637
▁President	-638
lie	-639
▁four	-640
▁second	-641
▁through	-642
▁En	-643
▁if	-644
▁down	-645
ered	-646
aj	-647
ty	-648
▁tr	-649
cial	-650
▁sur	-651
▁just	-652
ink	-653
ted	-654
▁today	-655
▁Israel	-656
▁result	-657
ug	-658
▁vot	-659
meric	-660
▁imp	-661
erson	-662
▁what	-663
▁show	-664
ank	-665
ible	-666
▁Can	-667
▁around	-668
▁Mar	-669
resent	-670
▁current	-671
ild	-672
ret	-673
ouse	-674
▁This	-675
▁em	-676
▁start	-677
▁cap	-678
▁she	-679
gr	-680
▁ass	-681
▁ter	-682
▁most	-683
ix	-684
cer	-685
ious	-686
ollow	-687
▁De	-688
lear	-689
▁death	-690
▁Pr	-691
▁because	-692
▁expl	-693
▁play	-694
▁well	-695
ctions	-696
▁Mr	-697
▁Sh	-698
orth	-699
▁support	-700
▁now	-701
▁Americ	-702
rid	-703
uro	-704
▁On	-705
▁such	-706
▁did	-707
hen	-708
ont	-709
osed	-710
ward	-711
ines	-712
▁like	-713
▁stud	-714
▁world	-715
..	-716
io	-717
▁vi	-718
▁Ar	-719
▁At	-720
uth	-721
▁investig	-722
▁8	-723
ina	-724
▁Wik	-725
oot	-726
ative	-727
▁back	-728
▁fire	-729
ai	-730
ale	-731
ific	-732
ise	-733
▁run	-734
uding	-735
▁told	-736
urn	-737
▁Comm	-738
▁pass	-739
ting	-740
▁inj	-741
yst	-742
▁Af	-743
▁oper	-744
▁president	-745
▁end	-746
▁area	-747
▁expect	-748
▁Re	-749
▁rel	-750
▁month	-751
ool	-752
▁many	-753
▁num	-754
ared	-755
▁prot	-756
▁both	-757
▁pr	-758
ries	-759
ured	-760
ower	-761
▁ac	-762
amil	-763
ures	-764
▁including	-765
ts	-766
ble	-767
▁def	-768
irect	-769
ives	-770
▁disc	-771
▁place	-772
▁fe	-773
ject	-774
tain	-775
▁take	-776
▁follow	-777
ings	-778
▁leg	-779
▁Brit	-780
▁belie	-781
▁contin	-782
▁announced	-783
istan	-784
ph	-785
▁occ	-786
osition	-787
▁statement	-788
led	-789
orn	-790
row	-791
ton	-792
▁our	-793
▁buil	-794
▁sign	-795
▁local	-796
au	-797
ms	-798
ility	-799
▁least	-800
ient	-801
urity	-802
▁right	-803
▁public	-804
▁cre	-805
▁Australian	-806
▁Canad	-807
ised	-808
▁ent	-809
▁then	-810
ajor	-811
▁Pol	-812
▁win	-813
▁rece	-814
▁spokes	-815
▁officials	-816
esday	-817
▁det	-818
▁Australia	-819
▁point	-820
erv	-821
▁wom	-822
▁high	-823
ute	-824
ather	-825
ene	-826
▁sm	-827
▁own	-828
ush	-829
▁due	-830
▁Russ	-831
▁says	-832
▁according	-833
sh	-834
▁bom	-835
▁ret	-836
▁$	-837
vent	-838
▁set	-839
▁saying	-840
▁company	-841
view	-842
▁requ	-843
ics	-844
▁Euro	-845
▁head	-846
▁appro	-847
▁military	-848
con	-849
ful	-850
ife	-851
▁Go	-852
arge	-853
▁Rep	-854
ivers	-855
ission	-856
",	-857
rans	-858
▁exp	-859
▁died	-860
read	-861
▁get	-862
▁ref	-863
alk	-864
▁news	-865
alth	-866
▁str	-867
uthor	-868
▁incre	-869
▁reports	-870
),	-871
osp	-872
▁serv	-873
▁stated	-874
▁10	-875
istr	-876
▁bo	-877
ystem	-878
▁those	-879
▁Sp	-880
cess	-881
▁ins	-882
veral	-883
▁child	-884
▁members	-885
▁bro	-886
velop	-887
▁need	-888
▁National	-889
eng	-890
▁used	-891
▁several	-892
min	-893
son	-894
▁op	-895
ately	-896
▁released	-897
les	-898
▁contro	-899
als	-900
▁Mc	-901
▁Te	-902
▁sub	-903
▁hour	-904
elf	-905
ross	-906
▁Pro	-907
▁next	-908
▁poss	-909
▁should	-910
cl	-911
▁9	-912
▁mat	-913
▁remain	-914
ney	-915
ians	-916
stit	-917
alf	-918
ism	-919
line	-920
▁ext	-921
▁oil	-922
▁sus	-923
▁Fran	-924
▁cond	-925
▁five	-926
rat	-927
ants	-928
▁South	-929
▁Europe	-930
und	-931
empt	-932
▁recent	-933
▁called	-934
tle	-935
ract	-936
▁dep	-937
▁hel	-938
▁camp	-939
▁system	-940
▁incident	-941
ets	-942
ety	-943
ier	-944
ived	-945
▁caus	-946
eneral	-947
▁major	-948
▁inform	-949
ax	-950
▁Sec	-951
▁opp	-952
▁allow	-953
ama	-954
ange	-955
▁expected	-956
ave	-957
uch	-958
uck	-959
orld	-960
▁Joh	-961
▁fore	-962
▁still	-963
▁former	-964
hes	-965
▁As	-966
ames	-967
▁long	-968
▁these	-969
aun	-970
rem	-971
ament	-972
▁Zeal	-973
▁polit	-974
▁Zealand	-975
▁you	-976
chool	-977
vious	-978
▁Part	-979
mber	-980
▁dif	-981
▁held	-982
▁number	-983
ason	-984
▁dem	-985
▁city	-986
▁includ	-987
▁another	-988
▁international	-989
arli	-990
▁bus	-991
▁help	-992
▁test	-993
▁alleg	-994
▁organ	-995
▁direct	-996
oci	-997
feren	-998
▁court	-999
eor	-1000
▁Cl	-1001
ages	-1002
▁Eng	-1003
▁very	-1004
▁famil	-1005
iel	-1006
▁Prime	-1007
duc	-1008
▁ph	-1009
aken	-1010
ator	-1011
▁World	-1012
the	-1013
ices	-1014
▁won	-1015
▁took	-1016
ular	-1017
▁make	-1018
▁vict	-1019
▁tri	-1020
▁days	-1021
▁mark	-1022
ospital	-1023
It	-1024
hip	-1025
ner	-1026
▁199	-1027
▁sit	-1028
▁cent	-1029
▁every	-1030
▁However	-1031
ester	-1032
▁countries	-1033
gg	-1034
ov	-1035
▁Q	-1036
urs	-1037
ired	-1038
ling	-1039
▁201	-1040
▁She	-1041
▁dam	-1042
imes	-1043
▁John	-1044
▁person	-1045
▁record	-1046
▁game	-1047
▁main	-1048
▁water	-1049
its	-1050
ness	-1051
ology	-1052
▁Iran	-1053
▁issu	-1054
▁press	-1055
▁election	-1056
ird	-1057
ened	-1058
ourn	-1059
▁use	-1060
ane	-1061
▁dri	-1062
▁arrest	-1063
▁attempt	-1064
ott	-1065
ands	-1066
year	-1067
▁invol	-1068
▁Wh	-1069
ized	-1070
▁Air	-1071
▁Sen	-1072
▁Frid	-1073
ony	-1074
▁met	-1075
▁six	-1076
▁sent	-1077
duct	-1078
gency	-1079
▁meet	-1080
▁Friday	-1081
▁develop	-1082
uman	-1083
▁Dem	-1084
▁viol	-1085
▁Sun	-1086
▁pri	-1087
▁laun	-1088
esterday	-1089
apan	-1090
▁fil	-1091
ified	-1092
▁concer	-1093
▁American	-1094
▁building	-1095
▁For	-1096
ocrat	-1097
ournal	-1098
ror	-1099
atur	-1100
ploy	-1101
▁crit	-1102
▁half	-1103
▁Party	-1104
).	-1105
▁15	-1106
▁Ad	-1107
used	-1108
▁even	-1109
▁want	-1110
artment	-1111
▁Pe	-1112
iber	-1113
▁They	-1114
▁rest	-1115
▁occur	-1116
▁power	-1117
by	-1118
ided	-1119
▁China	-1120
▁Japan	-1121
▁party	-1122
ews	-1123
ged	-1124
ody	-1125
▁Ab	-1126
▁put	-1127
▁same	-1128
▁House	-1129
▁British	-1130
pped	-1131
▁way	-1132
urther	-1133
▁known	-1134
ys	-1135
▁large	-1136
▁taken	-1137
▁confir	-1138
▁national	-1139
ull	-1140
▁exper	-1141
iversity	-1142
▁ask	-1143
▁author	-1144
▁previous	-1145
til	-1146
ober	-1147
gy	-1148
aign	-1149
▁later	-1150
▁security	-1151
ept	-1152
▁giv	-1153
ended	-1154
▁Cent	-1155
▁vide	-1156
idence	-1157
▁Man	-1158
▁York	-1159
▁women	-1160
▁Pal	-1161
▁adv	-1162
▁information	-1163
▁br	-1164
▁Mon	-1165
▁aff	-1166
▁case	-1167
▁-	-1168
get	-1169
▁my	-1170
ched	-1171
gram	-1172
ops	-1173
▁ed	-1174
hern	-1175
raft	-1176
▁Col	-1177
ondon	-1178
▁charg	-1179
▁Democrat	-1180
▁condition	-1181
aring	-1182
ought	-1183
▁home	-1184
retary	-1185
▁trans	-1186
chn	-1187
ins	-1188
▁Gr	-1189
ense	-1190
▁fail	-1191
▁move	-1192
▁Republic	-1193
ones	-1194
ounc	-1195
conom	-1196
▁came	-1197
▁left	-1198
▁polic	-1199
▁Police	-1200
ases	-1201
▁est	-1202
▁pop	-1203
▁sim	-1204
▁cand	-1205
▁media	-1206
▁without	-1207
▁Bl	-1208
cept	-1209
utes	-1210
work	-1211
ursday	-1212
ference	-1213
▁London	-1214
▁campaign	-1215
BC	-1216
cent	-1217
▁Con	-1218
▁mor	-1219
▁Geor	-1220
▁going	-1221
▁candid	-1222
▁partic	-1223
▁Thursday	-1224
▁decision	-1225
eb	-1226
▁'	-1227
▁Cal	-1228
▁far	-1229
ained	-1230
▁bomb	-1231
rison	-1232
▁prom	-1233
▁final	-1234
arliament	-1235
▁hospital	-1236
▁yesterday	-1237
▁ob	-1238
▁bill	-1239
▁miss	-1240
ending	-1241
▁event	-1242
▁until	-1243
▁commun	-1244
▁effect	-1245
▁men	-1246
ering	-1247
▁past	-1248
▁leader	-1249
▁school	-1250
ivil	-1251
▁del	-1252
▁tro	-1253
▁proble	-1254
▁children	-1255
▁further	-1256
▁International	-1257
erman	-1258
▁2006	-1259
▁post	-1260
▁After	-1261
ffic	-1262
urch	-1263
▁Dep	-1264
▁early	-1265
▁elect	-1266
Th	-1267
▁UN	-1268
amed	-1269
▁webs	-1270
▁North	-1271
com	-1272
▁Be	-1273
ield	-1274
ember	-1275
▁dead	-1276
▁life	-1277
▁econom	-1278
▁threat	-1279
▁journal	-1280
els	-1281
ury	-1282
▁12	-1283
▁mo	-1284
ished	-1285
▁2007	-1286
▁much	-1287
▁prop	-1288
▁months	-1289
▁protest	-1290
▁received	-1291
mp	-1292
ored	-1293
▁coll	-1294
▁There	-1295
▁region	-1296
▁interview	-1297
ief	-1298
▁Ob	-1299
▁vis	-1300
▁land	-1301
▁night	-1302
▁explos	-1303
▁Israeli	-1304
▁continu	-1305
tic	-1306
▁Se	-1307
▁rul	-1308
▁Bush	-1309
▁fact	-1310
ention	-1311
▁present	-1312
▁program	-1313
for	-1314
ior	-1315
▁11	-1316
▁ce	-1317
▁ke	-1318
lect	-1319
ready	-1320
uclear	-1321
▁within	-1322
▁Me	-1323
ghan	-1324
estin	-1325
▁German	-1326
▁political	-1327
▁Gu	-1328
▁Ass	-1329
▁hit	-1330
▁pay	-1331
ected	-1332
ually	-1333
▁does	-1334
though	-1335
▁—	-1336
ley	-1337
▁Am	-1338
ales	-1339
crib	-1340
▁few	-1341
▁try	-1342
▁shot	-1343
▁morning	-1344
▁European	-1345
▁18	-1346
▁Co	-1347
▁ve	-1348
lier	-1349
▁cor	-1350
▁hop	-1351
▁sold	-1352
ederal	-1353
uation	-1354
▁however	-1355
▁University	-1356
mit	-1357
aged	-1358
itte	-1359
▁inst	-1360
ouncil	-1361
▁Afghan	-1362
▁Monday	-1363
▁caused	-1364
▁forces	-1365
▁injured	-1366
▁currently	-1367
▁investigation	-1368
une	-1369
▁2008	-1370
▁already	-1371
30	-1372
cy	-1373
ves	-1374
ined	-1375
▁vote	-1376
ware	-1377
▁Min	-1378
▁fac	-1379
▁how	-1380
ggest	-1381
▁2005	-1382
▁added	-1383
ization	-1384
▁comple	-1385
▁suggest	-1386
lim	-1387
▁av	-1388
▁po	-1389
form	-1390
▁beh	-1391
▁hours	-1392
▁terror	-1393
▁Sy	-1394
inal	-1395
oman	-1396
▁Jan	-1397
▁decl	-1398
▁know	-1399
▁March	-1400
▁stand	-1401
▁respons	-1402
-1	-1403
aff	-1404
fety	-1405
▁And	-1406
▁Bar	-1407
▁human	-1408
▁quest	-1409
▁effort	-1410
▁occurred	-1411
reed	-1412
rist	-1413
side	-1414
▁spec	-1415
▁think	-1416
▁describ	-1417
▁spokesman	-1418
iness	-1419
▁race	-1420
▁activ	-1421
▁minister	-1422
▁gu	-1423
ides	-1424
▁Pak	-1425
▁News	-1426
▁each	-1427
vision	-1428
▁along	-1429
▁Sunday	-1430
▁points	-1431
▁addition	-1432
uel	-1433
ards	-1434
iron	-1435
iver	-1436
pite	-1437
▁emer	-1438
▁hand	-1439
▁talk	-1440
▁tele	-1441
▁small	-1442
▁having	-1443
▁attacks	-1444
▁earlier	-1445
▁following	-1446
▁Tu	-1447
▁Mus	-1448
ience	-1449
▁King	-1450
▁Pakistan	-1451
▁arrested	-1452
ns	-1453
▁Sw	-1454
ball	-1455
▁jud	-1456
olution	-1457
▁foreign	-1458
▁nuclear	-1459
gin	-1460
▁14	-1461
▁25	-1462
▁Or	-1463
▁UK	-1464
omet	-1465
oney	-1466
▁deb	-1467
▁yet	-1468
ittee	-1469
▁2004	-1470
▁went	-1471
▁State	-1472
▁third	-1473
▁minutes	-1474
▁confirmed	-1475
edn	-1476
isc	-1477
▁col	-1478
▁goal	-1479
▁open	-1480
▁site	-1481
▁Obama	-1482
▁treat	-1483
▁Russian	-1484
▁alleged	-1485
▁comment	-1486
lo	-1487
▁bre	-1488
arent	-1489
ights	-1490
inews	-1491
istry	-1492
imately	-1493
▁family	-1494
▁health	-1495
ednesday	-1496
▁England	-1497
▁involved	-1498
▁es	-1499
▁May	-1500
▁One	-1501
▁don	-1502
▁stri	-1503
ession	-1504
▁Afric	-1505
▁Satur	-1506
▁given	-1507
▁miles	-1508
▁started	-1509
▁Saturday	-1510
▁Wikinews	-1511
▁Wednesday	-1512
na	-1513
▁Ph	-1514
arch	-1515
▁deal	-1516
▁employ	-1517
▁possible	-1518
ij	-1519
ats	-1520
▁med	-1521
▁change	-1522
▁prison	-1523
▁see	-1524
▁cost	-1525
▁level	-1526
▁video	-1527
▁Canada	-1528
▁claimed	-1529
▁accident	-1530
to	-1531
ium	-1532
por	-1533
▁top	-1534
rench	-1535
▁able	-1536
▁good	-1537
▁lost	-1538
▁road	-1539
▁town	-1540
▁techn	-1541
▁suspect	-1542
ars	-1543
▁All	-1544
▁net	-1545
▁member	-1546
▁control	-1547
rug	-1548
sec	-1549
less	-1550
▁old	-1551
craft	-1552
order	-1553
viron	-1554
▁away	-1555
▁ball	-1556
▁care	-1557
▁asked	-1558
▁civil	-1559
▁France	-1560
▁resear	-1561
▁capital	-1562
▁website	-1563
avy	-1564
ger	-1565
ocu	-1566
▁Ju	-1567
▁tot	-1568
▁come	-1569
▁stop	-1570
ically	-1571
overed	-1572
▁began	-1573
▁short	-1574
▁French	-1575
▁compet	-1576
my	-1577
▁sl	-1578
augh	-1579
▁free	-1580
▁look	-1581
ulation	-1582
▁claims	-1583
▁others	-1584
▁Tuesday	-1585
vironment	-1586
▁Department	-1587
pr	-1588
▁30	-1589
ecut	-1590
icro	-1591
uary	-1592
iting	-1593
▁crew	-1594
▁foot	-1595
▁happ	-1596
ministr	-1597
▁appear	-1598
▁billion	-1599
aper	-1600
▁docu	-1601
ovember	-1602
...	-1603
lish	-1604
▁larg	-1605
▁targ	-1606
▁clear	-1607
▁Palestin	-1608
lob	-1609
▁Fl	-1610
cast	-1611
▁che	-1612
epend	-1613
▁sour	-1614
▁Union	-1615
▁close	-1616
▁season	-1617
▁victim	-1618
▁January	-1619
▁service	-1620
▁November	-1621
ee	-1622
reen	-1623
gress	-1624
▁read	-1625
▁weap	-1626
▁critic	-1627
▁rights	-1628
▁working	-1629
go	-1630
raw	-1631
ten	-1632
This	-1633
▁100	-1634
▁Res	-1635
aster	-1636
▁Mich	-1637
▁areas	-1638
▁train	-1639
▁action	-1640
▁believed	-1641
▁business	-1642
▁Car	-1643
wards	-1644
▁dist	-1645
▁order	-1646
▁peace	-1647
▁states	-1648
▁position	-1649
.5	-1650
▁50	-1651
▁Sa	-1652
▁Dav	-1653
ached	-1654
▁Kore	-1655
▁inte	-1656
▁less	-1657
▁match	-1658
▁study	-1659
▁strong	-1660
▁troops	-1661
▁process	-1662
ev	-1663
ann	-1664
▁McC	-1665
urned	-1666
▁fight	-1667
ls	-1668
▁Br	-1669
▁Par	-1670
▁eng	-1671
▁ris	-1672
iving	-1673
▁dest	-1674
▁seven	-1675
▁using	-1676
▁access	-1677
▁respon	-1678
eptember	-1679
▁percent	-1680
▁release	-1681
▁workers	-1682
▁Secretary	-1683
ize	-1684
▁tax	-1685
ature	-1686
stitution	-1687
▁evidence	-1688
▁let	-1689
▁form	-1690
▁Court	-1691
▁September	-1692
▁represent	-1693
▁situation	-1694
▁Government	-1695
nd	-1696
ael	-1697
iers	-1698
▁cut	-1699
▁hist	-1700
▁resc	-1701
▁suff	-1702
▁crash	-1703
ximately	-1704
▁whether	-1705
▁continue	-1706
▁host	-1707
▁ident	-1708
▁become	-1709
▁taking	-1710
▁Canadian	-1711
gu	-1712
hic	-1713
now	-1714
▁198	-1715
▁wat	-1716
duced	-1717
riend	-1718
▁prof	-1719
ibility	-1720
▁across	-1721
▁market	-1722
▁serious	-1723
TC	-1724
▁13	-1725
▁We	-1726
▁fr	-1727
▁ri	-1728
ague	-1729
▁tem	-1730
▁ten	-1731
▁indust	-1732
▁making	-1733
▁resident	-1734
0.	-1735
aly	-1736
ude	-1737
▁tw	-1738
▁Cor	-1739
▁den	-1740
▁equ	-1741
▁meas	-1742
▁rock	-1743
atives	-1744
orters	-1745
ternet	-1746
▁among	-1747
▁chang	-1748
▁eight	-1749
▁Christ	-1750
rop	-1751
roy	-1752
▁Tr	-1753
hers	-1754
hest	-1755
hing	-1756
▁pen	-1757
icted	-1758
▁must	-1759
cement	-1760
ctober	-1761
ressed	-1762
▁staff	-1763
▁storm	-1764
▁import	-1765
ern	-1766
omp	-1767
▁sw	-1768
ebru	-1769
▁repl	-1770
▁money	-1771
▁total	-1772
ebruary	-1773
▁Russia	-1774
▁target	-1775
▁meeting	-1776
▁director	-1777
▁response	-1778
ape	-1779
▁17	-1780
▁ur	-1781
rain	-1782
▁Bro	-1783
▁big	-1784
▁dev	-1785
▁list	-1786
▁indic	-1787
▁damage	-1788
▁results	-1789
▁aircraft	-1790
50	-1791
lam	-1792
tar	-1793
▁dr	-1794
▁pat	-1795
▁July	-1796
▁succ	-1797
▁block	-1798
▁legal	-1799
▁plane	-1800
istrict	-1801
▁October	-1802
▁conduct	-1803
▁request	-1804
▁independ	-1805
▁emergency	-1806
▁authorities	-1807
1,	-1808
ify	-1809
ler	-1810
yan	-1811
ergy	-1812
▁fun	-1813
▁hom	-1814
▁pub	-1815
▁cust	-1816
▁orig	-1817
▁wind	-1818
▁coast	-1819
▁prevent	-1820
▁project	-1821
ministration	-1822
oe	-1823
▁[	-1824
fic	-1825
▁24	-1826
▁NA	-1827
ilar	-1828
ivid	-1829
stru	-1830
▁ban	-1831
iforn	-1832
▁City	-1833
▁drug	-1834
▁fall	-1835
ipedia	-1836
▁India	-1837
▁Liber	-1838
▁vehic	-1839
orthern	-1840
▁General	-1841
▁leaders	-1842
▁passeng	-1843
▁February	-1844
▁companies	-1845
ees	-1846
ily	-1847
rew	-1848
ming	-1849
▁Aug	-1850
▁hot	-1851
▁neg	-1852
ators	-1853
▁disp	-1854
▁keep	-1855
▁Count	-1856
▁comes	-1857
▁trial	-1858
ifornia	-1859
mark	-1860
self	-1861
▁seen	-1862
▁August	-1863
▁issued	-1864
▁policy	-1865
▁safety	-1866
▁believe	-1867
▁California	-1868
▁conditions	-1869
1.	-1870
oo	-1871
idd	-1872
oon	-1873
ots	-1874
akes	-1875
▁job	-1876
▁led	-1877
▁body	-1878
▁conv	-1879
▁board	-1880
▁shoot	-1881
duction	-1882
▁likely	-1883
▁series	-1884
▁travel	-1885
▁described	-1886
▁approximately	-1887
ask	-1888
dom	-1889
rab	-1890
ron	-1891
▁16	-1892
raph	-1893
▁gen	-1894
▁got	-1895
ently	-1896
uture	-1897
▁2003	-1898
▁pres	-1899
▁design	-1900
▁nation	-1901
▁charges	-1902
▁thought	-1903
▁weapons	-1904
▁interest	-1905
ams	-1906
att	-1907
ese	-1908
▁BBC	-1909
imate	-1910
▁face	-1911
▁sing	-1912
▁based	-1913
▁ground	-1914
▁Council	-1915
▁Nations	-1916
▁outside	-1917
▁services	-1918
ds	-1919
▁Dr	-1920
▁sk	-1921
duce	-1922
▁Cup	-1923
iding	-1924
lobal	-1925
▁times	-1926
▁individ	-1927
▁largest	-1928
▁Wikipedia	-1929
▁Democratic	-1930
ipp	-1931
let	-1932
par	-1933
que	-1934
▁Ex	-1935
▁Pa	-1936
▁mar	-1937
▁saw	-1938
▁hard	-1939
▁qual	-1940
▁susp	-1941
itness	-1942
lished	-1943
▁agree	-1944
▁cases	-1945
▁thous	-1946
▁weeks	-1947
▁Scient	-1948
▁execut	-1949
▁launch	-1950
▁Michael	-1951
ino	-1952
sue	-1953
aced	-1954
ways	-1955
icide	-1956
ential	-1957
estern	-1958
▁cause	-1959
▁compl	-1960
▁issue	-1961
▁Associ	-1962
▁closed	-1963
▁Indones	-1964
▁network	-1965
▁similar	-1966
bo	-1967
aid	-1968
ech	-1969
isl	-1970
▁Fin	-1971
▁Sch	-1972
▁Tur	-1973
▁Two	-1974
▁hig	-1975
▁June	-1976
▁West	-1977
▁late	-1978
pecial	-1979
person	-1980
▁David	-1981
▁Georg	-1982
▁although	-1983
▁conference	-1984
SA	-1985
most	-1986
▁lim	-1987
▁low	-1988
▁grow	-1989
ington	-1990
▁sched	-1991
▁Germany	-1992
▁success	-1993
▁question	-1994
▁recently	-1995
▁opposition	-1996
▁previously	-1997
▁Afghanistan	-1998
hi	-1999
acy	-2000
ead	-2001
ert	-2002
val	-2003
▁Pl	-2004
abor	-2005
ocial	-2006
thing	-2007
eration	-2008
ination	-2009
▁friend	-2010
▁future	-2011
▁nearly	-2012
▁include	-2013
▁increase	-2014
2.	-2015
amb	-2016
elt	-2017
era	-2018
umb	-2019
ager	-2020
medi	-2021
oung	-2022
soft	-2023
▁aid	-2024
▁ord	-2025
▁too	-2026
ances	-2027
▁best	-2028
▁mass	-2029
▁earth	-2030
▁great	-2031
ailable	-2032
ificant	-2033
▁Senator	-2034
▁students	-2035
reme	-2036
▁kil	-2037
▁full	-2038
▁real	-2039
▁impro	-2040
▁scored	-2041
▁account	-2042
▁accused	-2043
▁discuss	-2044
▁located	-2045
▁community	-2046
▁Commission	-2047
▁Republican	-2048
▁Palestinian	-2049
arm	-2050
iod	-2051
ring	-2052
uled	-2053
attle	-2054
oring	-2055
▁line	-2056
▁name	-2057
ficult	-2058
▁deter	-2059
▁reach	-2060
▁failed	-2061
▁groups	-2062
▁contact	-2063
▁federal	-2064
▁candidate	-2065
▁individual	-2066
20	-2067
ays	-2068
men	-2069
▁gun	-2070
▁mod	-2071
▁Dece	-2072
▁priv	-2073
▁chief	-2074
▁penal	-2075
▁Muslim	-2076
▁provide	-2077
▁December	-2078
▁problems	-2079
▁available	-2080
▁television	-2081
over	-2082
▁Ham	-2083
▁Tai	-2084
▁fif	-2085
▁When	-2086
▁bank	-2087
▁ship	-2088
▁Micro	-2089
▁estim	-2090
▁behind	-2091
▁difficult	-2092
▁environment	-2093
ti	-2094
mar	-2095
upt	-2096
pril	-2097
▁Med	-2098
▁War	-2099
▁mag	-2100
▁val	-2101
asing	-2102
illeg	-2103
▁rate	-2104
▁soft	-2105
▁writ	-2106
▁begin	-2107
▁broad	-2108
▁carry	-2109
▁agency	-2110
▁assist	-2111
▁border	-2112
▁flight	-2113
▁despite	-2114
▁particip	-2115
▁San	-2116
▁ago	-2117
▁Scot	-2118
▁With	-2119
▁give	-2120
▁loss	-2121
▁side	-2122
▁April	-2123
▁carri	-2124
▁might	-2125
ampions	-2126
▁accept	-2127
▁became	-2128
▁immedi	-2129
▁America	-2130
▁suicide	-2131
aza	-2132
ban	-2133
use	-2134
▁Ed	-2135
head	-2136
lymp	-2137
▁age	-2138
▁East	-2139
▁infl	-2140
▁Iraqi	-2141
▁return	-2142
▁Microsoft	-2143
▁significant	-2144
▁presidential	-2145
ata	-2146
not	-2147
sel	-2148
uty	-2149
aled	-2150
reet	-2151
teen	-2152
▁Que	-2153
ising	-2154
secut	-2155
▁Cons	-2156
▁find	-2157
▁init	-2158
▁Islam	-2159
▁Olymp	-2160
▁Roman	-2161
▁office	-2162
▁destroy	-2163
▁efforts	-2164
▁himself	-2165
▁Ministry	-2166
▁scheduled	-2167
▁Parliament	-2168
acc	-2169
ably	-2170
itiz	-2171
quir	-2172
▁Sup	-2173
▁non	-2174
▁obs	-2175
▁Arab	-2176
▁Just	-2177
▁cred	-2178
▁tour	-2179
ensive	-2180
▁house	-2181
▁illeg	-2182
▁amount	-2183
▁appeal	-2184
▁search	-2185
▁history	-2186
▁contract	-2187
▁elections	-2188
ami	-2189
app	-2190
aps	-2191
han	-2192
inc	-2193
▁27	-2194
▁sat	-2195
inese	-2196
▁risk	-2197
undred	-2198
▁plans	-2199
▁Center	-2200
▁County	-2201
▁Health	-2202
▁Island	-2203
▁issues	-2204
▁Chinese	-2205
▁Kingdom	-2206
▁actions	-2207
▁Scotland	-2208
▁document	-2209
▁spokesperson	-2210
ump	-2211
▁(1	-2212
▁40	-2213
ceed	-2214
▁Def	-2215
ellig	-2216
ither	-2217
orney	-2218
▁Mark	-2219
▁arri	-2220
▁fell	-2221
▁link	-2222
▁mess	-2223
▁reve	-2224
rought	-2225
▁commit	-2226
▁consid	-2227
▁proper	-2228
▁journalists	-2229
ara	-2230
irc	-2231
▁ap	-2232
airs	-2233
bour	-2234
here	-2235
▁rad	-2236
aving	-2237
odies	-2238
osing	-2239
ports	-2240
▁port	-2241
ration	-2242
▁round	-2243
▁somet	-2244
▁woman	-2245
ications	-2246
▁general	-2247
▁special	-2248
▁launched	-2249
▁soldiers	-2250
▁violence	-2251
▁residents	-2252
ef	-2253
▁Bay	-2254
▁Mil	-2255
▁bel	-2256
▁mur	-2257
▁evac	-2258
▁food	-2259
ancial	-2260
verage	-2261
▁Korea	-2262
▁Scott	-2263
▁mater	-2264
▁space	-2265
▁Indian	-2266
▁deaths	-2267
▁period	-2268
▁victims	-2269
▁Security	-2270
▁continued	-2271
▁increased	-2272
▁parliament	-2273
2,	-2274
af	-2275
uf	-2276
aks	-2277
wide	-2278
▁196	-2279
▁Act	-2280
▁App	-2281
▁Net	-2282
▁lit	-2283
▁lot	-2284
▁pil	-2285
▁pur	-2286
▁sum	-2287
itive	-2288
uries	-2289
▁dise	-2290
▁shut	-2291
▁Press	-2292
▁class	-2293
▁concl	-2294
▁front	-2295
▁speed	-2296
▁energy	-2297
▁perform	-2298
▁victory	-2299
▁majority	-2300
▁important	-2301
▁controvers	-2302
uk	-2303
ole	-2304
ple	-2305
ung	-2306
xic	-2307
oted	-2308
▁But	-2309
▁eas	-2310
▁hol	-2311
▁reb	-2312
▁Some	-2313
arding	-2314
▁bring	-2315
▁scene	-2316
▁custom	-2317
▁passed	-2318
▁scient	-2319
▁speech	-2320
▁parties	-2321
▁economic	-2322
▁Committee	-2323
▁commented	-2324
▁organization	-2325
me	-2326
ites	-2327
rian	-2328
▁bar	-2329
▁boy	-2330
▁esc	-2331
ences	-2332
▁Will	-2333
▁char	-2334
▁fuel	-2335
▁blast	-2336
▁diffe	-2337
▁force	-2338
▁judge	-2339
▁never	-2340
▁separ	-2341
▁users	-2342
▁Africa	-2343
▁respect	-2344
▁explosion	-2345
▁operation	-2346
▁population	-2347
▁responsible	-2348
▁announcement	-2349
of	-2350
ua	-2351
▁di	-2352
ires	-2353
▁Des	-2354
erous	-2355
ribut	-2356
udget	-2357
▁Fore	-2358
▁Sant	-2359
▁step	-2360
▁surv	-2361
▁view	-2362
▁named	-2363
▁Britain	-2364
▁hundred	-2365
▁complete	-2366
▁included	-2367
▁software	-2368
▁published	-2369
ham	-2370
hel	-2371
leb	-2372
▁1,	-2373
▁To	-2374
ault	-2375
▁Ang	-2376
▁Bra	-2377
▁kid	-2378
ander	-2379
ively	-2380
licop	-2381
▁argu	-2382
▁base	-2383
▁ever	-2384
▁stay	-2385
atures	-2386
lement	-2387
▁Wales	-2388
▁White	-2389
▁heavy	-2390
▁pract	-2391
▁teams	-2392
▁Church	-2393
▁inside	-2394
▁needed	-2395
▁rescue	-2396
▁constru	-2397
▁earthqu	-2398
▁helicop	-2399
▁warning	-2400
▁material	-2401
▁research	-2402
enn	-2403
oud	-2404
ows	-2405
urg	-2406
▁Ser	-2407
▁vir	-2408
▁vol	-2409
enced	-2410
urric	-2411
gether	-2412
▁Group	-2413
▁prior	-2414
▁legisl	-2415
▁review	-2416
▁trying	-2417
▁missing	-2418
▁Internet	-2419
▁affected	-2420
▁together	-2421
anc	-2422
ari	-2423
key	-2424
▁Bel	-2425
▁book	-2426
▁stat	-2427
▁turn	-2428
mitted	-2429
vernor	-2430
▁artic	-2431
▁wound	-2432
inished	-2433
▁bodies	-2434
▁driver	-2435
▁global	-2436
ological	-2437
▁problem	-2438
▁industry	-2439
▁treatment	-2440
▁technology	-2441
9.	-2442
:00	-2443
lin	-2444
yer	-2445
▁lo	-2446
ches	-2447
▁His	-2448
ashed	-2449
▁Phil	-2450
▁dang	-2451
▁prep	-2452
▁seek	-2453
▁north	-2454
▁demand	-2455
▁decided	-2456
▁product	-2457
▁reached	-2458
▁families	-2459
▁followed	-2460
▁different	-2461
If	-2462
be	-2463
ago	-2464
off	-2465
ope	-2466
zer	-2467
▁23	-2468
▁TV	-2469
aker	-2470
ogle	-2471
▁How	-2472
▁aim	-2473
▁dom	-2474
▁sen	-2475
eared	-2476
▁hold	-2477
▁citiz	-2478
▁share	-2479
▁coming	-2480
▁entire	-2481
▁showed	-2482
▁signed	-2483
▁brought	-2484
▁injuries	-2485
ait	-2486
▁jo	-2487
rick	-2488
based	-2489
inton	-2490
▁Cong	-2491
▁coal	-2492
▁defe	-2493
▁pric	-2494
▁Inter	-2495
▁games	-2496
ighters	-2497
▁Senate	-2498
▁enough	-2499
▁letter	-2500
▁respond	-2501
ashington	-2502
▁finished	-2503
▁province	-2504
FA	-2505
za	-2506
reg	-2507
▁El	-2508
▁No	-2509
▁el	-2510
ford	-2511
▁UTC	-2512
▁dro	-2513
▁mot	-2514
▁pot	-2515
▁sol	-2516
atory	-2517
quiry	-2518
▁Serv	-2519
▁doll	-2520
▁hope	-2521
ertain	-2522
▁While	-2523
▁Willi	-2524
▁chall	-2525
▁noted	-2526
▁stage	-2527
▁George	-2528
▁almost	-2529
▁though	-2530
▁disaster	-2531
▁Washington	-2532
▁operations	-2533
ze	-2534
uff	-2535
wan	-2536
▁er	-2537
▁art	-2538
▁dou	-2539
▁fav	-2540
▁ide	-2541
▁imm	-2542
▁cris	-2543
▁remo	-2544
▁vill	-2545
idered	-2546
▁light	-2547
▁father	-2548
▁allowed	-2549
▁charged	-2550
▁penalty	-2551
▁concerns	-2552
fer	-2553
ini	-2554
ties	-2555
▁fig	-2556
▁par	-2557
▁tre	-2558
orter	-2559
▁Jack	-2560
▁Paul	-2561
▁bene	-2562
▁Offic	-2563
▁filed	-2564
▁intro	-2565
▁relig	-2566
▁south	-2567
▁young	-2568
stitute	-2569
▁During	-2570
▁forward	-2571
▁required	-2572
ampionship	-2573
▁Sm	-2574
uter	-2575
▁Har	-2576
▁gir	-2577
▁sex	-2578
ional	-2579
▁Gaza	-2580
▁Park	-2581
▁pred	-2582
▁safe	-2583
▁upon	-2584
ograph	-2585
▁Rober	-2586
▁Trans	-2587
outhern	-2588
▁Google	-2589
▁budget	-2590
▁detail	-2591
▁strike	-2592
▁Georgia	-2593
▁changes	-2594
▁killing	-2595
▁mission	-2596
▁declared	-2597
▁shooting	-2598
▁agreement	-2599
▁financial	-2600
▁additional	-2601
▁reportedly	-2602
ya	-2603
lex	-2604
ule	-2605
▁sy	-2606
They	-2607
erry	-2608
itor	-2609
lict	-2610
oura	-2611
rupt	-2612
▁Red	-2613
▁enc	-2614
▁ice	-2615
aught	-2616
overy	-2617
ridge	-2618
▁done	-2619
▁exam	-2620
▁mult	-2621
▁nine	-2622
▁field	-2623
▁lawsu	-2624
▁price	-2625
▁McCain	-2626
▁illegal	-2627
▁leading	-2628
▁earthquake	-2629
▁administration	-2630
8,	-2631
wh	-2632
oti	-2633
ades	-2634
atic	-2635
iger	-2636
▁197	-2637
▁Mor	-2638
▁amb	-2639
▁mid	-2640
iddle	-2641
itude	-2642
stand	-2643
▁Rich	-2644
▁Ryan	-2645
▁comb	-2646
▁here	-2647
▁snow	-2648
▁neigh	-2649
▁occup	-2650
urricane	-2651
▁Clinton	-2652
▁disease	-2653
▁planned	-2654
▁officers	-2655
▁proposed	-2656
▁thousands	-2657
▁candidates	-2658
▁development	-2659
bor	-2660
pro	-2661
▁$1	-2662
▁Ag	-2663
▁So	-2664
ruct	-2665
▁Ken	-2666
▁Sal	-2667
▁bur	-2668
▁High	-2669
▁band	-2670
▁walk	-2671
▁wife	-2672
elling	-2673
▁Mexic	-2674
▁Organ	-2675
▁newsp	-2676
▁League	-2677
▁better	-2678
▁crisis	-2679
▁parent	-2680
▁prices	-2681
▁reason	-2682
▁created	-2683
▁estimated	-2684
▁considered	-2685
0,	-2686
4.	-2687
In	-2688
ey	-2689
kn	-2690
sw	-2691
▁0	-2692
oke	-2693
ria	-2694
▁ty	-2695
vere	-2696
vert	-2697
▁Dan	-2698
▁Tex	-2699
ading	-2700
▁capt	-2701
▁hous	-2702
▁rain	-2703
▁seem	-2704
▁celeb	-2705
▁cross	-2706
▁shown	-2707
▁detain	-2708
▁island	-2709
▁contain	-2710
▁nations	-2711
▁vehicle	-2712
▁witness	-2713
▁Congress	-2714
▁broadcast	-2715
▁potential	-2716
▁particular	-2717
de	-2718
nel	-2719
zil	-2720
▁MP	-2721
aint	-2722
inet	-2723
▁cop	-2724
▁foc	-2725
▁Bank	-2726
▁Port	-2727
▁fund	-2728
▁runs	-2729
▁soon	-2730
airman	-2731
ociety	-2732
▁Space	-2733
▁Times	-2734
▁ahead	-2735
▁evacu	-2736
▁lives	-2737
▁track	-2738
▁forced	-2739
▁matter	-2740
▁mother	-2741
▁online	-2742
▁origin	-2743
▁played	-2744
▁ruling	-2745
▁social	-2746
▁economy	-2747
▁officer	-2748
▁popular	-2749
▁conflict	-2750
▁discovered	-2751
▁production	-2752
Wh	-2753
▁21	-2754
cean	-2755
chie	-2756
enty	-2757
ging	-2758
ural	-2759
▁Ben	-2760
arter	-2761
going	-2762
ortun	-2763
▁cell	-2764
▁cour	-2765
▁role	-2766
ishing	-2767
▁moved	-2768
▁virus	-2769
▁visit	-2770
▁withd	-2771
vention	-2772
▁Brazil	-2773
▁Howard	-2774
▁longer	-2775
▁nearby	-2776
▁single	-2777
▁source	-2778
▁English	-2779
▁address	-2780
▁managed	-2781
▁running	-2782
▁sources	-2783
▁towards	-2784
▁progress	-2785
▁suggested	-2786
▁journalist	-2787
▁passengers	-2788
9,	-2789
ald	-2790
ery	-2791
ges	-2792
ote	-2793
aded	-2794
ises	-2795
ners	-2796
onst	-2797
▁Pat	-2798
▁Som	-2799
▁bas	-2800
There	-2801
▁Army	-2802
▁educ	-2803
▁mine	-2804
jected	-2805
reedom	-2806
selves	-2807
▁estab	-2808
▁homes	-2809
ability	-2810
▁chance	-2811
▁really	-2812
▁warned	-2813
▁airline	-2814
elligence	-2815
▁apparent	-2816
▁regarding	-2817
▁throughout	-2818
ex	-2819
yr	-2820
omb	-2821
▁Je	-2822
ayed	-2823
ctor	-2824
eles	-2825
▁Reg	-2826
▁Syd	-2827
▁pun	-2828
▁data	-2829
▁once	-2830
reland	-2831
▁leave	-2832
▁parts	-2833
▁union	-2834
▁voted	-2835
▁either	-2836
▁impact	-2837
▁struck	-2838
▁manager	-2839
▁football	-2840
▁employees	-2841
▁executive	-2842
▁independent	-2843
hd	-2844
aut	-2845
urt	-2846
▁EU	-2847
ador	-2848
ison	-2849
▁Ear	-2850
▁Hol	-2851
▁fre	-2852
chers	-2853
field	-2854
known	-2855
▁Sing	-2856
▁didn	-2857
▁film	-2858
encies	-2859
▁fourth	-2860
▁murder	-2861
▁things	-2862
ervative	-2863
▁Ireland	-2864
▁remains	-2865
▁Scottish	-2866
▁appeared	-2867
▁operating	-2868
▁Scientology	-2869
200	-2870
bre	-2871
sun	-2872
ulf	-2873
vey	-2874
down	-2875
hood	-2876
miss	-2877
▁Mel	-2878
▁Ste	-2879
▁cam	-2880
▁hon	-2881
▁why	-2882
0,000	-2883
arian	-2884
▁Fire	-2885
▁Vict	-2886
▁lack	-2887
▁laws	-2888
▁live	-2889
▁magn	-2890
▁Texas	-2891
▁break	-2892
▁paper	-2893
▁quick	-2894
▁always	-2895
▁cannot	-2896
▁denied	-2897
▁levels	-2898
▁minute	-2899
▁negoti	-2900
▁worked	-2901
▁improve	-2902
▁initial	-2903
▁stating	-2904
▁something	-2905
.,	-2906
amo	-2907
bit	-2908
imb	-2909
ues	-2910
rown	-2911
▁Her	-2912
▁Moh	-2913
▁gas	-2914
▁lat	-2915
▁Mart	-2916
▁crim	-2917
▁pack	-2918
▁phot	-2919
▁rout	-2920
▁vers	-2921
▁your	-2922
▁Peter	-2923
▁achie	-2924
▁check	-2925
▁restr	-2926
▁spoke	-2927
▁talks	-2928
agement	-2929
isation	-2930
▁Agency	-2931
▁living	-2932
▁opened	-2933
▁severe	-2934
▁temper	-2935
▁Federal	-2936
▁medical	-2937
▁removed	-2938
▁station	-2939
▁weather	-2940
▁citizens	-2941
▁pressure	-2942
▁destroyed	-2943
▁allegations	-2944
▁immediately	-2945
ana	-2946
onn	-2947
▁Mo	-2948
alib	-2949
▁Ber	-2950
▁Tor	-2951
▁mus	-2952
ening	-2953
ffice	-2954
quare	-2955
ufact	-2956
▁Alex	-2957
▁Hill	-2958
▁anal	-2959
▁anti	-2960
▁beat	-2961
▁coup	-2962
▁fear	-2963
▁feet	-2964
▁gave	-2965
ension	-2966
ulture	-2967
▁colle	-2968
▁fired	-2969
▁hotel	-2970
▁score	-2971
▁agreed	-2972
▁engine	-2973
▁certain	-2974
▁leaving	-2975
▁Northern	-2976
▁happened	-2977
▁maintain	-2978
▁successful	-2979
▁construction	-2980
uy	-2981
yl	-2982
:30	-2983
ali	-2984
emb	-2985
iet	-2986
ogn	-2987
uge	-2988
▁22	-2989
▁Tw	-2990
▁Bag	-2991
▁Per	-2992
▁abs	-2993
▁fir	-2994
▁son	-2995
ality	-2996
tario	-2997
uters	-2998
▁circ	-2999
▁felt	-3000
▁gain	-3001
▁lear	-3002
▁prob	-3003
▁benef	-3004
▁influ	-3005
▁means	-3006
▁Direct	-3007
▁Sydney	-3008
▁consum	-3009
▁growth	-3010
pecially	-3011
▁African	-3012
▁Foreign	-3013
▁Justice	-3014
▁Ontario	-3015
▁Western	-3016
▁calling	-3017
▁causing	-3018
▁instead	-3019
ification	-3020
▁Japanese	-3021
▁district	-3022
▁revealed	-3023
▁Indonesia	-3024
▁committee	-3025
▁militants	-3026
▁responsibility	-3027
He	-3028
IA	-3029
ica	-3030
iff	-3031
ili	-3032
oid	-3033
oms	-3034
udd	-3035
▁II	-3036
▁Ro	-3037
anda	-3038
cing	-3039
▁Mat	-3040
▁fem	-3041
essor	-3042
▁guil	-3043
▁norm	-3044
▁term	-3045
▁tsun	-3046
esters	-3047
▁Hamas	-3048
▁exist	-3049
▁minor	-3050
▁seats	-3051
▁whose	-3052
▁little	-3053
▁necess	-3054
▁wanted	-3055
▁crashed	-3056
▁finding	-3057
▁carrying	-3058
▁fighting	-3059
▁prosecut	-3060
▁civilians	-3061
▁conducted	-3062
▁department	-3063
▁themselves	-3064
sc	-3065
rog	-3066
rol	-3067
van	-3068
▁Gl	-3069
▁If	-3070
like	-3071
▁Fij	-3072
▁Mal	-3073
▁Tim	-3074
▁You	-3075
▁emb	-3076
▁red	-3077
▁Ital	-3078
▁Tony	-3079
▁leak	-3080
▁pain	-3081
▁poor	-3082
▁Other	-3083
▁broke	-3084
▁coach	-3085
▁flood	-3086
▁obser	-3087
▁super	-3088
▁watch	-3089
▁People	-3090
▁cancer	-3091
▁obtain	-3092
▁raised	-3093
▁Airport	-3094
▁Romania	-3095
▁article	-3096
▁entered	-3097
▁message	-3098
▁schools	-3099
▁Official	-3100
▁attacked	-3101
▁suffered	-3102
▁Institute	-3103
▁allegedly	-3104
▁expressed	-3105
▁relations	-3106
▁especially	-3107
▁constitution	-3108
6,	-3109
ped	-3110
rel	-3111
▁cy	-3112
▁km	-3113
ader	-3114
gypt	-3115
oice	-3116
▁Cur	-3117
▁Mah	-3118
▁Spe	-3119
▁unc	-3120
▁var	-3121
ories	-3122
ption	-3123
▁Mass	-3124
▁prim	-3125
aliban	-3126
▁Egypt	-3127
▁spent	-3128
▁votes	-3129
▁propos	-3130
▁reduce	-3131
▁demonst	-3132
▁ordered	-3133
▁Although	-3134
▁protests	-3135
▁stations	-3136
▁attention	-3137
▁supported	-3138
▁experience	-3139
8.	-3140
ox	-3141
▁z	-3142
aed	-3143
ift	-3144
▁35	-3145
▁CE	-3146
▁Ne	-3147
come	-3148
gest	-3149
oned	-3150
time	-3151
▁Abb	-3152
▁Los	-3153
▁Mos	-3154
▁Pac	-3155
▁Roy	-3156
▁ens	-3157
▁fly	-3158
▁fra	-3159
ushed	-3160
▁vess	-3161
▁ended	-3162
▁heard	-3163
▁purch	-3164
▁shows	-3165
▁Commun	-3166
▁School	-3167
▁Taiwan	-3168
▁quoted	-3169
▁recogn	-3170
▁spread	-3171
▁private	-3172
▁quarter	-3173
▁anything	-3174
▁measures	-3175
▁withdraw	-3176
▁secretary	-3177
▁transport	-3178
▁legislation	-3179
▁environmental	-3180
add	-3181
rim	-3182
aily	-3183
angu	-3184
ares	-3185
imum	-3186
rial	-3187
ster	-3188
▁bad	-3189
▁cle	-3190
▁div	-3191
▁dog	-3192
▁ran	-3193
oming	-3194
▁Span	-3195
▁coun	-3196
▁floo	-3197
▁jury	-3198
▁male	-3199
▁star	-3200
▁wide	-3201
ritory	-3202
▁Chief	-3203
▁Found	-3204
▁extra	-3205
▁Author	-3206
▁Mexico	-3207
▁annual	-3208
▁associ	-3209
▁career	-3210
▁caught	-3211
▁events	-3212
▁itself	-3213
▁posted	-3214
▁senior	-3215
▁turned	-3216
▁highest	-3217
▁inquiry	-3218
▁traffic	-3219
▁flooding	-3220
▁manufact	-3221
▁provided	-3222
▁presented	-3223
▁reporters	-3224
een	-3225
ode	-3226
ray	-3227
cher	-3228
hold	-3229
ille	-3230
ival	-3231
lant	-3232
mine	-3233
noon	-3234
omas	-3235
usse	-3236
▁NASA	-3237
▁kick	-3238
▁mean	-3239
astern	-3240
▁James	-3241
▁Smith	-3242
▁These	-3243
▁displ	-3244
▁trade	-3245
▁Queens	-3246
▁common	-3247
▁female	-3248
▁guilty	-3249
▁served	-3250
poration	-3251
▁Iranian	-3252
▁Islamic	-3253
▁Service	-3254
▁airport	-3255
▁carried	-3256
▁climate	-3257
▁concern	-3258
▁council	-3259
▁lawsuit	-3260
▁refused	-3261
▁shortly	-3262
▁tsunami	-3263
▁wounded	-3264
▁District	-3265
▁policies	-3266
▁customers	-3267
▁developed	-3268
▁implement	-3269
▁questions	-3270
▁identified	-3271
▁Association	-3272
ST	-3273
erc	-3274
ube	-3275
udi	-3276
ula	-3277
▁60	-3278
▁La	-3279
ateg	-3280
body	-3281
oper	-3282
astic	-3283
ctors	-3284
lines	-3285
▁arms	-3286
▁club	-3287
▁feel	-3288
▁paid	-3289
▁stre	-3290
▁Green	-3291
▁doing	-3292
ication	-3293
ilities	-3294
tection	-3295
▁Barack	-3296
▁satell	-3297
▁winner	-3298
▁Italian	-3299
▁Taliban	-3300
▁brother	-3301
▁encoura	-3302
▁quickly	-3303
▁various	-3304
▁activity	-3305
▁northern	-3306
▁afternoon	-3307
▁buildings	-3308
▁coalition	-3309
▁increasing	-3310
-0	-3311
7,	-3312
rs	-3313
den	-3314
hib	-3315
ida	-3316
lad	-3317
▁Bo	-3318
▁Em	-3319
▁Int	-3320
▁Sud	-3321
▁Sum	-3322
▁flu	-3323
▁nom	-3324
acter	-3325
▁Comp	-3326
▁Last	-3327
▁Many	-3328
▁crow	-3329
▁phys	-3330
▁song	-3331
arlier	-3332
lected	-3333
▁Franc	-3334
▁cover	-3335
▁joint	-3336
▁spill	-3337
▁stock	-3338
▁truck	-3339
ountain	-3340
▁celebr	-3341
▁charge	-3342
▁defend	-3343
▁houses	-3344
▁lawyer	-3345
▁proced	-3346
▁Spanish	-3347
▁damaged	-3348
▁getting	-3349
▁hearing	-3350
▁parents	-3351
▁consider	-3352
▁critical	-3353
▁ministry	-3354
▁contribut	-3355
▁helicopter	-3356
▁protesters	-3357
TO	-3358
ux	-3359
▁:	-3360
▁i	-3361
aze	-3362
face	-3363
hdad	-3364
ston	-3365
wood	-3366
yers	-3367
▁Day	-3368
▁Del	-3369
▁Pre	-3370
▁Rad	-3371
▁Win	-3372
▁web	-3373
▁wel	-3374
aging	-3375
iance	-3376
ients	-3377
▁boat	-3378
isions	-3379
▁Leban	-3380
adition	-3381
▁Middle	-3382
▁Office	-3383
▁Turkey	-3384
▁Victor	-3385
▁anyone	-3386
▁attend	-3387
▁course	-3388
▁higher	-3389
▁perfor	-3390
▁rather	-3391
▁supply	-3392
▁Baghdad	-3393
▁Despite	-3394
▁Liberal	-3395
▁assault	-3396
▁central	-3397
▁dismiss	-3398
▁players	-3399
▁protect	-3400
▁require	-3401
▁hundreds	-3402
▁includes	-3403
▁recorded	-3404
▁Pakistani	-3405
▁criticism	-3406
▁terrorist	-3407
▁Foundation	-3408
▁resolution	-3409
no	-3410
500	-3411
bon	-3412
rap	-3413
▁80	-3414
aces	-3415
aeda	-3416
mail	-3417
ocal	-3418
rant	-3419
rees	-3420
sequ	-3421
uded	-3422
▁500	-3423
▁Inc	-3424
▁Lab	-3425
▁Met	-3426
▁Val	-3427
▁Wal	-3428
▁ple	-3429
▁ste	-3430
icago	-3431
▁2010	-3432
▁Cont	-3433
▁Land	-3434
▁Team	-3435
▁Turk	-3436
▁dipl	-3437
▁girl	-3438
▁poll	-3439
▁rule	-3440
▁self	-3441
abinet	-3442
change	-3443
▁crime	-3444
▁fraud	-3445
▁lines	-3446
▁lower	-3447
▁offer	-3448
▁ruled	-3449
▁tried	-3450
aughter	-3451
▁advert	-3452
▁giving	-3453
▁placed	-3454
▁player	-3455
▁recomm	-3456
▁rocket	-3457
▁average	-3458
▁bombing	-3459
▁consist	-3460
▁details	-3461
▁driving	-3462
▁elected	-3463
▁offered	-3464
▁related	-3465
▁criminal	-3466
▁defeated	-3467
▁presence	-3468
▁Democrats	-3469
▁scientists	-3470
▁competition	-3471
.2	-3472
5.	-3473
ags	-3474
▁45	-3475
..."	-3476
iple	-3477
lled	-3478
reck	-3479
rief	-3480
▁Att	-3481
▁Lee	-3482
▁Nor	-3483
▁Tom	-3484
▁aut	-3485
▁ill	-3486
▁rev	-3487
ental	-3488
istic	-3489
▁Both	-3490
▁Educ	-3491
▁aged	-3492
▁anim	-3493
▁card	-3494
▁deep	-3495
▁room	-3496
▁sale	-3497
▁Human	-3498
▁armed	-3499
▁built	-3500
▁music	-3501
▁owner	-3502
▁phone	-3503
▁pilot	-3504
ounding	-3505
▁Resear	-3506
▁Rights	-3507
▁credit	-3508
▁ensure	-3509
▁favour	-3510
▁latest	-3511
▁resign	-3512
▁secret	-3513
▁unable	-3514
inisters	-3515
▁Chicago	-3516
▁Earlier	-3517
▁blocked	-3518
▁dollars	-3519
▁dropped	-3520
▁effects	-3521
▁looking	-3522
▁massive	-3523
▁proceed	-3524
▁Director	-3525
▁attorney	-3526
▁compared	-3527
▁personal	-3528
▁Christian	-3529
▁indicated	-3530
▁necessary	-3531
▁newspaper	-3532
▁activities	-3533
▁intelligence	-3534
▁controversial	-3535
any	-3536
▁70	-3537
▁wr	-3538
atal	-3539
aves	-3540
keep	-3541
usal	-3542
▁...	-3543
▁Dar	-3544
▁Gre	-3545
▁Mad	-3546
▁Sim	-3547
▁lic	-3548
▁pet	-3549
▁sea	-3550
inary	-3551
▁More	-3552
▁Oper	-3553
▁clos	-3554
▁diss	-3555
▁join	-3556
ources	-3557
▁2006.	-3558
▁Chris	-3559
▁Force	-3560
▁focus	-3561
▁gener	-3562
▁often	-3563
▁rules	-3564
▁thing	-3565
▁reform	-3566
▁biggest	-3567
▁flights	-3568
▁funding	-3569
▁replace	-3570
▁species	-3571
▁subject	-3572
▁weekend	-3573
▁admitted	-3574
▁movement	-3575
▁opportun	-3576
▁starting	-3577
▁Represent	-3578
▁beginning	-3579
▁passenger	-3580
▁Queensland	-3581
▁commission	-3582
▁introduced	-3583
▁supporters	-3584
▁governments	-3585
▁individuals	-3586
40	-3587
asc	-3588
ela	-3589
emy	-3590
igg	-3591
mon	-3592
oor	-3593
ota	-3594
▁ep	-3595
▁wa	-3596
Tube	-3597
back	-3598
band	-3599
ibly	-3600
irth	-3601
ores	-3602
rack	-3603
▁Cap	-3604
▁Rec	-3605
▁USA	-3606
▁Vir	-3607
▁mis	-3608
▁sil	-3609
▁tit	-3610
▁via	-3611
adium	-3612
ister	-3613
itter	-3614
usion	-3615
venue	-3616
▁Fiji	-3617
▁Flor	-3618
▁doub	-3619
▁jail	-3620
▁tank	-3621
▁Frank	-3622
▁Labor	-3623
▁calls	-3624
▁heart	-3625
▁natur	-3626
▁needs	-3627
▁prime	-3628
▁sites	-3629
itation	-3630
mercial	-3631
▁Andrew	-3632
▁Prince	-3633
▁Thomas	-3634
▁create	-3635
▁disapp	-3636
▁kilome	-3637
▁status	-3638
fighters	-3639
ribution	-3640
▁content	-3641
▁sending	-3642
▁unknown	-3643
▁Hospital	-3644
▁agencies	-3645
▁challeng	-3646
▁comments	-3647
▁original	-3648
▁Transport	-3649
▁evacuated	-3650
▁magnitude	-3651
▁religious	-3652
▁suspected	-3653
▁terrorism	-3654
▁profession	-3655
$1	-3656
CA	-3657
ps	-3658
ipe	-3659
▁iP	-3660
gent	-3661
ples	-3662
ully	-3663
vest	-3664
▁Haw	-3665
▁deg	-3666
▁key	-3667
▁pit	-3668
annel	-3669
asons	-3670
house	-3671
itzer	-3672
mance	-3673
onald	-3674
woman	-3675
▁Asia	-3676
▁Wind	-3677
▁kind	-3678
▁pick	-3679
▁purp	-3680
▁rise	-3681
ground	-3682
inated	-3683
▁Coast	-3684
▁Syria	-3685
▁award	-3686
▁below	-3687
▁cerem	-3688
▁costs	-3689
▁makes	-3690
▁plant	-3691
▁refer	-3692
▁resol	-3693
▁wreck	-3694
ructure	-3695
▁Atlant	-3696
▁Columb	-3697
▁Robert	-3698
▁provin	-3699
▁resist	-3700
▁Another	-3701
▁Olympic	-3702
▁Supreme	-3703
▁YouTube	-3704
▁appoint	-3705
▁arrived	-3706
▁collaps	-3707
▁extreme	-3708
▁kilomet	-3709
▁nothing	-3710
▁organiz	-3711
▁politic	-3712
▁receive	-3713
▁village	-3714
▁approved	-3715
▁property	-3716
▁training	-3717
▁vehicles	-3718
▁attempted	-3719
▁convicted	-3720
▁documents	-3721
▁developing	-3722
▁originally	-3723
HO	-3724
MA	-3725
tt	-3726
But	-3727
lig	-3728
pei	-3729
▁26	-3730
▁hy	-3731
book	-3732
esty	-3733
evin	-3734
fire	-3735
hens	-3736
ills	-3737
pris	-3738
racy	-3739
rast	-3740
reng	-3741
▁Boe	-3742
▁CEO	-3743
▁Hel	-3744
▁Jud	-3745
alled	-3746
alymp	-3747
▁Gree	-3748
▁Mont	-3749
▁Over	-3750
▁Step	-3751
▁answ	-3752
▁army	-3753
▁pers	-3754
▁prem	-3755
▁surr	-3756
ulated	-3757
ussein	-3758
▁First	-3759
▁Italy	-3760
▁Kevin	-3761
▁Royal	-3762
▁black	-3763
▁enfor	-3764
▁marri	-3765
▁owned	-3766
▁tests	-3767
▁winds	-3768
lection	-3769
▁Public	-3770
▁battle	-3771
▁experi	-3772
▁object	-3773
▁voting	-3774
▁Angeles	-3775
▁Jackson	-3776
▁Lebanon	-3777
▁Pacific	-3778
▁Richard	-3779
▁opening	-3780
▁Paralymp	-3781
▁chairman	-3782
▁products	-3783
▁proposal	-3784
▁restrict	-3785
▁separate	-3786
▁southern	-3787
▁Education	-3788
▁incidents	-3789
▁remaining	-3790
▁responded	-3791
▁everything	-3792
▁investigating	-3793
EC	-3794
ani	-3795
can	-3796
gun	-3797
pir	-3798
▁31	-3799
▁33	-3800
▁Ge	-3801
apse	-3802
atch	-3803
athe	-3804
mond	-3805
rish	-3806
▁Abd	-3807
▁Aff	-3808
▁Che	-3809
▁Pri	-3810
▁Sir	-3811
▁Sol	-3812
▁aud	-3813
▁fle	-3814
▁har	-3815
▁sal	-3816
Qaeda	-3817
asion	-3818
illed	-3819
ulate	-3820
while	-3821
▁2000	-3822
▁Camp	-3823
▁Mike	-3824
▁Tele	-3825
▁burn	-3826
▁fast	-3827
▁idea	-3828
▁kept	-3829
▁opin	-3830
▁spot	-3831
▁text	-3832
▁Apple	-3833
▁Cross	-3834
▁Guard	-3835
▁green	-3836
▁story	-3837
▁whole	-3838
▁worth	-3839
issions	-3840
▁Street	-3841
▁Toront	-3842
▁Virgin	-3843
▁affect	-3844
▁diplom	-3845
▁helped	-3846
▁images	-3847
▁outbre	-3848
▁sexual	-3849
▁streng	-3850
▁Central	-3851
▁Florida	-3852
▁Hussein	-3853
▁defence	-3854
▁failure	-3855
▁figures	-3856
▁freedom	-3857
▁friends	-3858
▁scoring	-3859
▁seconds	-3860
▁student	-3861
▁Governor	-3862
▁allowing	-3863
▁claiming	-3864
▁rejected	-3865
▁reporter	-3866
▁targeted	-3867
▁Officials	-3868
▁contacted	-3869
▁receiving	-3870
▁kilometers	-3871
▁understand	-3872
▁Administration	-3873
%.	-3874
cow	-3875
eth	-3876
oph	-3877
urb	-3878
urd	-3879
war	-3880
▁36	-3881
▁5.	-3882
▁Qu	-3883
▁Su	-3884
arks	-3885
ends	-3886
erve	-3887
fall	-3888
omen	-3889
rote	-3890
ugby	-3891
west	-3892
▁Cru	-3893
▁Jos	-3894
▁Law	-3895
▁Pen	-3896
▁Rob	-3897
▁mom	-3898
▁nar	-3899
acity	-3900
ammed	-3901
estic	-3902
▁Adam	-3903
▁NATO	-3904
▁date	-3905
▁stra	-3906
▁toll	-3907
action	-3908
hester	-3909
▁2006,	-3910
▁2007.	-3911
▁Brown	-3912
▁Earth	-3913
▁Major	-3914
▁Sudan	-3915
▁aimed	-3916
▁amend	-3917
▁birth	-3918
▁	-3919
e	-3920
t	-3921
a	-3922
i	-3923
n	-3924
o	-3925
r	-3926
s	-3927
h	-3928
l	-3929
d	-3930
c	-3931
u	-3932
m	-3933
f	-3934
p	-3935
g	-3936
w	-3937
y	-3938
b	-3939
,	-3940
.	-3941
v	-3942
k	-3943
T	-3944
"	-3945
S	-3946
A	-3947
0	-3948
C	-3949
I	-3950
M	-3951
'	-3952
P	-3953
B	-3954
1	-3955
-	-3956
x	-3957
2	-3958
H	-3959
N	-3960
W	-3961
F	-3962
R	-3963
D	-3964
U	-3965
G	-3966
j	-3967
L	-3968
E	-3969
O	-3970
z	-3971
q	-3972
J	-3973
5	-3974
3	-3975
9	-3976
K	-3977
4	-3978
(	-3979
)	-3980
8	-3981
7	-3982
6	-3983
V	-3984
:	-3985
Y	-3986
Z	-3987
$	-3988
;	-3989
%	-3990
Q	-3991
—	-3992
’	-3993
]	-3994
[	-3995
